{
  "version": "1.0",
  "truncation": null,
  "padding": null,
  "added_tokens": [
    {
      "id": 0,
      "content": "<|endoftext|>",
      "single_word": false,
      "lstrip": false,
      "rstrip": false,
      "normalized": false,
      "special": true
    },
    {
      "id": 1,
      "content": "<|system|>",
      "single_word": false,
      "lstrip": false,
      "rstrip": false,
      "normalized": false,
      "special": true
    },
    {
      "id": 2,
      "content": "<|user|>",
      "single_word": false,
      "lstrip": false,
      "rstrip": false,
      "normalized": false,
      "special": true
    },
    {
      "id": 3,
      "content": "<|assistant|>",
      "single_word": false,
      "lstrip": false,
      "rstrip": false,
      "normalized": false,
      "special": true
    },
    {
      "id": 4,
      "content": "<|tool_call|>",
      "single_word": false,
      "lstrip": false,
      "rstrip": false,
      "normalized": false,
      "special": true
    },
    {
      "id": 5,
      "content": "<|tool_result|>",
      "single_word": false,
      "lstrip": false,
      "rstrip": false,
      "normalized": false,
      "special": true
    },
    {
      "id": 6,
      "content": "<|tool_end|>",
      "single_word": false,
      "lstrip": false,
      "rstrip": false,
      "normalized": false,
      "special": true
    },
    {
      "id": 7,
      "content": "[RETRIEVE:yes]",
      "single_word": false,
      "lstrip": false,
      "rstrip": false,
      "normalized": false,
      "special": true
    },
    {
      "id": 8,
      "content": "[RETRIEVE:no]",
      "single_word": false,
      "lstrip": false,
      "rstrip": false,
      "normalized": false,
      "special": true
    },
    {
      "id": 9,
      "content": "[RETRIEVE:continue]",
      "single_word": false,
      "lstrip": false,
      "rstrip": false,
      "normalized": false,
      "special": true
    },
    {
      "id": 10,
      "content": "[REL:yes]",
      "single_word": false,
      "lstrip": false,
      "rstrip": false,
      "normalized": false,
      "special": true
    },
    {
      "id": 11,
      "content": "[REL:partial]",
      "single_word": false,
      "lstrip": false,
      "rstrip": false,
      "normalized": false,
      "special": true
    },
    {
      "id": 12,
      "content": "[REL:no]",
      "single_word": false,
      "lstrip": false,
      "rstrip": false,
      "normalized": false,
      "special": true
    },
    {
      "id": 13,
      "content": "[SUP:full]",
      "single_word": false,
      "lstrip": false,
      "rstrip": false,
      "normalized": false,
      "special": true
    },
    {
      "id": 14,
      "content": "[SUP:partial]",
      "single_word": false,
      "lstrip": false,
      "rstrip": false,
      "normalized": false,
      "special": true
    },
    {
      "id": 15,
      "content": "[SUP:none]",
      "single_word": false,
      "lstrip": false,
      "rstrip": false,
      "normalized": false,
      "special": true
    },
    {
      "id": 16,
      "content": "[USE:1]",
      "single_word": false,
      "lstrip": false,
      "rstrip": false,
      "normalized": false,
      "special": true
    },
    {
      "id": 17,
      "content": "[USE:2]",
      "single_word": false,
      "lstrip": false,
      "rstrip": false,
      "normalized": false,
      "special": true
    },
    {
      "id": 18,
      "content": "[USE:3]",
      "single_word": false,
      "lstrip": false,
      "rstrip": false,
      "normalized": false,
      "special": true
    },
    {
      "id": 19,
      "content": "[USE:4]",
      "single_word": false,
      "lstrip": false,
      "rstrip": false,
      "normalized": false,
      "special": true
    },
    {
      "id": 20,
      "content": "[USE:5]",
      "single_word": false,
      "lstrip": false,
      "rstrip": false,
      "normalized": false,
      "special": true
    },
    {
      "id": 21,
      "content": "[MORE:yes]",
      "single_word": false,
      "lstrip": false,
      "rstrip": false,
      "normalized": false,
      "special": true
    },
    {
      "id": 22,
      "content": "[MORE:no]",
      "single_word": false,
      "lstrip": false,
      "rstrip": false,
      "normalized": false,
      "special": true
    },
    {
      "id": 23,
      "content": "[RESERVED:00]",
      "single_word": false,
      "lstrip": false,
      "rstrip": false,
      "normalized": false,
      "special": true
    },
    {
      "id": 24,
      "content": "[RESERVED:01]",
      "single_word": false,
      "lstrip": false,
      "rstrip": false,
      "normalized": false,
      "special": true
    },
    {
      "id": 25,
      "content": "[RESERVED:02]",
      "single_word": false,
      "lstrip": false,
      "rstrip": false,
      "normalized": false,
      "special": true
    },
    {
      "id": 26,
      "content": "[RESERVED:03]",
      "single_word": false,
      "lstrip": false,
      "rstrip": false,
      "normalized": false,
      "special": true
    },
    {
      "id": 27,
      "content": "[RESERVED:04]",
      "single_word": false,
      "lstrip": false,
      "rstrip": false,
      "normalized": false,
      "special": true
    },
    {
      "id": 28,
      "content": "[RESERVED:05]",
      "single_word": false,
      "lstrip": false,
      "rstrip": false,
      "normalized": false,
      "special": true
    },
    {
      "id": 29,
      "content": "[RESERVED:06]",
      "single_word": false,
      "lstrip": false,
      "rstrip": false,
      "normalized": false,
      "special": true
    },
    {
      "id": 30,
      "content": "[RESERVED:07]",
      "single_word": false,
      "lstrip": false,
      "rstrip": false,
      "normalized": false,
      "special": true
    },
    {
      "id": 31,
      "content": "[RESERVED:08]",
      "single_word": false,
      "lstrip": false,
      "rstrip": false,
      "normalized": false,
      "special": true
    },
    {
      "id": 32,
      "content": "[RESERVED:09]",
      "single_word": false,
      "lstrip": false,
      "rstrip": false,
      "normalized": false,
      "special": true
    },
    {
      "id": 33,
      "content": "[RESERVED:10]",
      "single_word": false,
      "lstrip": false,
      "rstrip": false,
      "normalized": false,
      "special": true
    },
    {
      "id": 34,
      "content": "[RESERVED:11]",
      "single_word": false,
      "lstrip": false,
      "rstrip": false,
      "normalized": false,
      "special": true
    },
    {
      "id": 35,
      "content": "[RESERVED:12]",
      "single_word": false,
      "lstrip": false,
      "rstrip": false,
      "normalized": false,
      "special": true
    },
    {
      "id": 36,
      "content": "[RESERVED:13]",
      "single_word": false,
      "lstrip": false,
      "rstrip": false,
      "normalized": false,
      "special": true
    },
    {
      "id": 37,
      "content": "[RESERVED:14]",
      "single_word": false,
      "lstrip": false,
      "rstrip": false,
      "normalized": false,
      "special": true
    },
    {
      "id": 38,
      "content": "[RESERVED:15]",
      "single_word": false,
      "lstrip": false,
      "rstrip": false,
      "normalized": false,
      "special": true
    },
    {
      "id": 32761,
      "content": " realise",
      "single_word": false,
      "lstrip": false,
      "rstrip": false,
      "normalized": false,
      "special": false
    },
    {
      "id": 32762,
      "content": " realised",
      "single_word": false,
      "lstrip": false,
      "rstrip": false,
      "normalized": false,
      "special": false
    },
    {
      "id": 32763,
      "content": " organise",
      "single_word": false,
      "lstrip": false,
      "rstrip": false,
      "normalized": false,
      "special": false
    },
    {
      "id": 32764,
      "content": " analysed",
      "single_word": false,
      "lstrip": false,
      "rstrip": false,
      "normalized": false,
      "special": false
    },
    {
      "id": 32765,
      "content": " licence",
      "single_word": false,
      "lstrip": false,
      "rstrip": false,
      "normalized": false,
      "special": false
    },
    {
      "id": 32766,
      "content": " practise",
      "single_word": false,
      "lstrip": false,
      "rstrip": false,
      "normalized": false,
      "special": false
    },
    {
      "id": 32767,
      "content": " organised",
      "single_word": false,
      "lstrip": false,
      "rstrip": false,
      "normalized": false,
      "special": false
    }
  ],
  "normalizer": null,
  "pre_tokenizer": {
    "type": "ByteLevel",
    "add_prefix_space": false,
    "trim_offsets": true,
    "use_regex": true
  },
  "post_processor": null,
  "decoder": {
    "type": "ByteLevel",
    "add_prefix_space": true,
    "trim_offsets": true,
    "use_regex": true
  },
  "model": {
    "type": "BPE",
    "dropout": null,
    "unk_token": null,
    "continuing_subword_prefix": null,
    "end_of_word_suffix": null,
    "fuse_unk": false,
    "byte_fallback": false,
    "ignore_merges": false,
    "vocab": {
      "<|endoftext|>": 0,
      "<|system|>": 1,
      "<|user|>": 2,
      "<|assistant|>": 3,
      "<|tool_call|>": 4,
      "<|tool_result|>": 5,
      "<|tool_end|>": 6,
      "[RETRIEVE:yes]": 7,
      "[RETRIEVE:no]": 8,
      "[RETRIEVE:continue]": 9,
      "[REL:yes]": 10,
      "[REL:partial]": 11,
      "[REL:no]": 12,
      "[SUP:full]": 13,
      "[SUP:partial]": 14,
      "[SUP:none]": 15,
      "[USE:1]": 16,
      "[USE:2]": 17,
      "[USE:3]": 18,
      "[USE:4]": 19,
      "[USE:5]": 20,
      "[MORE:yes]": 21,
      "[MORE:no]": 22,
      "[RESERVED:00]": 23,
      "[RESERVED:01]": 24,
      "[RESERVED:02]": 25,
      "[RESERVED:03]": 26,
      "[RESERVED:04]": 27,
      "[RESERVED:05]": 28,
      "[RESERVED:06]": 29,
      "[RESERVED:07]": 30,
      "[RESERVED:08]": 31,
      "[RESERVED:09]": 32,
      "[RESERVED:10]": 33,
      "[RESERVED:11]": 34,
      "[RESERVED:12]": 35,
      "[RESERVED:13]": 36,
      "[RESERVED:14]": 37,
      "[RESERVED:15]": 38,
      "!": 39,
      "\"": 40,
      "#": 41,
      "$": 42,
      "%": 43,
      "&": 44,
      "'": 45,
      "(": 46,
      ")": 47,
      "*": 48,
      "+": 49,
      ",": 50,
      "-": 51,
      ".": 52,
      "/": 53,
      "0": 54,
      "1": 55,
      "2": 56,
      "3": 57,
      "4": 58,
      "5": 59,
      "6": 60,
      "7": 61,
      "8": 62,
      "9": 63,
      ":": 64,
      ";": 65,
      "<": 66,
      "=": 67,
      ">": 68,
      "?": 69,
      "@": 70,
      "A": 71,
      "B": 72,
      "C": 73,
      "D": 74,
      "E": 75,
      "F": 76,
      "G": 77,
      "H": 78,
      "I": 79,
      "J": 80,
      "K": 81,
      "L": 82,
      "M": 83,
      "N": 84,
      "O": 85,
      "P": 86,
      "Q": 87,
      "R": 88,
      "S": 89,
      "T": 90,
      "U": 91,
      "V": 92,
      "W": 93,
      "X": 94,
      "Y": 95,
      "Z": 96,
      "[": 97,
      "\\": 98,
      "]": 99,
      "^": 100,
      "_": 101,
      "`": 102,
      "a": 103,
      "b": 104,
      "c": 105,
      "d": 106,
      "e": 107,
      "f": 108,
      "g": 109,
      "h": 110,
      "i": 111,
      "j": 112,
      "k": 113,
      "l": 114,
      "m": 115,
      "n": 116,
      "o": 117,
      "p": 118,
      "q": 119,
      "r": 120,
      "s": 121,
      "t": 122,
      "u": 123,
      "v": 124,
      "w": 125,
      "x": 126,
      "y": 127,
      "z": 128,
      "{": 129,
      "|": 130,
      "}": 131,
      "~": 132,
      "¡": 133,
      "¢": 134,
      "£": 135,
      "¤": 136,
      "¥": 137,
      "¦": 138,
      "§": 139,
      "¨": 140,
      "©": 141,
      "ª": 142,
      "«": 143,
      "¬": 144,
      "®": 145,
      "¯": 146,
      "°": 147,
      "±": 148,
      "²": 149,
      "³": 150,
      "´": 151,
      "µ": 152,
      "¶": 153,
      "·": 154,
      "¸": 155,
      "¹": 156,
      "º": 157,
      "»": 158,
      "¼": 159,
      "½": 160,
      "¾": 161,
      "¿": 162,
      "À": 163,
      "Á": 164,
      "Â": 165,
      "Ã": 166,
      "Ä": 167,
      "Å": 168,
      "Æ": 169,
      "Ç": 170,
      "È": 171,
      "É": 172,
      "Ê": 173,
      "Ë": 174,
      "Ì": 175,
      "Í": 176,
      "Î": 177,
      "Ï": 178,
      "Ð": 179,
      "Ñ": 180,
      "Ò": 181,
      "Ó": 182,
      "Ô": 183,
      "Õ": 184,
      "Ö": 185,
      "×": 186,
      "Ø": 187,
      "Ù": 188,
      "Ú": 189,
      "Û": 190,
      "Ü": 191,
      "Ý": 192,
      "Þ": 193,
      "ß": 194,
      "à": 195,
      "á": 196,
      "â": 197,
      "ã": 198,
      "ä": 199,
      "å": 200,
      "æ": 201,
      "ç": 202,
      "è": 203,
      "é": 204,
      "ê": 205,
      "ë": 206,
      "ì": 207,
      "í": 208,
      "î": 209,
      "ï": 210,
      "ð": 211,
      "ñ": 212,
      "ò": 213,
      "ó": 214,
      "ô": 215,
      "õ": 216,
      "ö": 217,
      "÷": 218,
      "ø": 219,
      "ù": 220,
      "ú": 221,
      "û": 222,
      "ü": 223,
      "ý": 224,
      "þ": 225,
      "ÿ": 226,
      "Ā": 227,
      "ā": 228,
      "Ă": 229,
      "ă": 230,
      "Ą": 231,
      "ą": 232,
      "Ć": 233,
      "ć": 234,
      "Ĉ": 235,
      "ĉ": 236,
      "Ċ": 237,
      "ċ": 238,
      "Č": 239,
      "č": 240,
      "Ď": 241,
      "ď": 242,
      "Đ": 243,
      "đ": 244,
      "Ē": 245,
      "ē": 246,
      "Ĕ": 247,
      "ĕ": 248,
      "Ė": 249,
      "ė": 250,
      "Ę": 251,
      "ę": 252,
      "Ě": 253,
      "ě": 254,
      "Ĝ": 255,
      "ĝ": 256,
      "Ğ": 257,
      "ğ": 258,
      "Ġ": 259,
      "ġ": 260,
      "Ģ": 261,
      "ģ": 262,
      "Ĥ": 263,
      "ĥ": 264,
      "Ħ": 265,
      "ħ": 266,
      "Ĩ": 267,
      "ĩ": 268,
      "Ī": 269,
      "ī": 270,
      "Ĭ": 271,
      "ĭ": 272,
      "Į": 273,
      "į": 274,
      "İ": 275,
      "ı": 276,
      "Ĳ": 277,
      "ĳ": 278,
      "Ĵ": 279,
      "ĵ": 280,
      "Ķ": 281,
      "ķ": 282,
      "ĸ": 283,
      "Ĺ": 284,
      "ĺ": 285,
      "Ļ": 286,
      "ļ": 287,
      "Ľ": 288,
      "ľ": 289,
      "Ŀ": 290,
      "ŀ": 291,
      "Ł": 292,
      "ł": 293,
      "Ń": 294,
      "ĠĠ": 295,
      "Ġt": 296,
      "in": 297,
      "Ġa": 298,
      "er": 299,
      "he": 300,
      "on": 301,
      "en": 302,
      "es": 303,
      "Ġs": 304,
      "ĠĠĠĠ": 305,
      "at": 306,
      "or": 307,
      "Ġthe": 308,
      "re": 309,
      "Ġc": 310,
      "it": 311,
      "nd": 312,
      "is": 313,
      "al": 314,
      "Ġo": 315,
      "Ġw": 316,
      "ing": 317,
      "Ġd": 318,
      "Ġp": 319,
      "Ġf": 320,
      "an": 321,
      "ed": 322,
      "ar": 323,
      "Ġb": 324,
      "ic": 325,
      "ou": 326,
      "ion": 327,
      "Ġin": 328,
      "Ġm": 329,
      "le": 330,
      "Ġof": 331,
      "Ġand": 332,
      "Ġto": 333,
      "el": 334,
      "ro": 335,
      "ent": 336,
      "as": 337,
      "Ġe": 338,
      "ct": 339,
      "Ġh": 340,
      "ĠĠĠ": 341,
      "Ġth": 342,
      "et": 343,
      "st": 344,
      "Ġn": 345,
      "om": 346,
      "il": 347,
      "ch": 348,
      "Ġl": 349,
      "ur": 350,
      "ĠĠĠĠĠĠĠĠ": 351,
      "im": 352,
      "Ġu": 353,
      "Ġre": 354,
      "Ġg": 355,
      "ol": 356,
      "ut": 357,
      "ra": 358,
      "ĠT": 359,
      "ig": 360,
      "ation": 361,
      "id": 362,
      "Ġis": 363,
      "se": 364,
      "ĠS": 365,
      "iv": 366,
      "ce": 367,
      "ĠA": 368,
      "ot": 369,
      "ow": 370,
      "am": 371,
      "ly": 372,
      "Ġfor": 373,
      "Ġbe": 374,
      "ul": 375,
      "ers": 376,
      "Ġst": 377,
      "Ġv": 378,
      "ĠI": 379,
      "ir": 380,
      "if": 381,
      "Ġy": 382,
      "ĠC": 383,
      "ĠĠĠĠĠĠĠ": 384,
      "Ġr": 385,
      "em": 386,
      "th": 387,
      "ess": 388,
      "Ġon": 389,
      "od": 390,
      "Ġ(": 391,
      "ter": 392,
      "ith": 393,
      "Ġcon": 394,
      "ad": 395,
      "est": 396,
      "un": 397,
      "âĢ": 398,
      "Ġthat": 399,
      "ay": 400,
      "Ġ=": 401,
      "Ġ1": 402,
      "um": 403,
      "ag": 404,
      "00": 405,
      "ĠM": 406,
      "Ġyou": 407,
      "Ġan": 408,
      "Ġas": 409,
      "ab": 410,
      "Ġpro": 411,
      "ver": 412,
      "ĠP": 413,
      "ie": 414,
      "qu": 415,
      "Ġwh": 416,
      "--": 417,
      "us": 418,
      "ist": 419,
      "ate": 420,
      "Ġwith": 421,
      "Ġal": 422,
      "Ġex": 423,
      "ĠB": 424,
      "ect": 425,
      "Ġor": 426,
      "Ġde": 427,
      "Ġit": 428,
      "ies": 429,
      "ve": 430,
      "ht": 431,
      "elf": 432,
      "ĠD": 433,
      "op": 434,
      "ere": 435,
      "ĠF": 436,
      "ĠE": 437,
      "ke": 438,
      "pp": 439,
      "ĠW": 440,
      "and": 441,
      "Ġcom": 442,
      "Ġare": 443,
      "Ġ2": 444,
      "ity": 445,
      "ac": 446,
      "ort": 447,
      "os": 448,
      "ĠH": 449,
      "ĠR": 450,
      "ill": 451,
      "oc": 452,
      "ĠThe": 453,
      "rom": 454,
      "end": 455,
      "Ġ\"": 456,
      "Ġsu": 457,
      "ive": 458,
      "ain": 459,
      "ich": 460,
      "ment": 461,
      "ri": 462,
      "ant": 463,
      "ĠL": 464,
      "pl": 465,
      "Ġhe": 466,
      "ĠN": 467,
      "Ġse": 468,
      "pt": 469,
      "ĠG": 470,
      "pe": 471,
      "ine": 472,
      "ld": 473,
      "##": 474,
      "ial": 475,
      "ore": 476,
      "ge": 477,
      "Ġne": 478,
      "Ġch": 479,
      "art": 480,
      "ions": 481,
      "Ġby": 482,
      "Ġim": 483,
      "te": 484,
      "Ġle": 485,
      "ure": 486,
      "og": 487,
      "Ġ'": 488,
      "all": 489,
      "ĠĠĠĠĠĠĠĠĠĠĠ": 490,
      "ud": 491,
      "ass": 492,
      "Ġat": 493,
      "Ġcan": 494,
      "hen": 495,
      "Ġwe": 496,
      "ical": 497,
      "Ġk": 498,
      "ight": 499,
      "rou": 500,
      "Ġund": 501,
      "Ġha": 502,
      "ue": 503,
      "Ġfrom": 504,
      "iz": 505,
      "Ġnot": 506,
      "per": 507,
      "ult": 508,
      "Ġab": 509,
      "Ġsh": 510,
      "Ġthis": 511,
      "Ġself": 512,
      "Ġres": 513,
      "out": 514,
      "our": 515,
      "Ġen": 516,
      "ind": 517,
      "Ġus": 518,
      "ĠO": 519,
      "ell": 520,
      "ame": 521,
      "ach": 522,
      "ust": 523,
      "nt": 524,
      "----": 525,
      "ff": 526,
      "âĢĻ": 527,
      "ost": 528,
      "orm": 529,
      "act": 530,
      "age": 531,
      "Ġwor": 532,
      "cl": 533,
      "ber": 534,
      "ations": 535,
      "ome": 536,
      "Ġwas": 537,
      "Âł": 538,
      "ard": 539,
      "ple": 540,
      "'s": 541,
      "ap": 542,
      "ĠU": 543,
      "ĠTh": 544,
      "Ã¼": 545,
      "Ġhave": 546,
      "ans": 547,
      "Ġpl": 548,
      "ould": 549,
      "Ġyour": 550,
      "ib": 551,
      "Ġun": 552,
      "ents": 553,
      "ak": 554,
      "Ġif": 555,
      "ath": 556,
      "able": 557,
      "ance": 558,
      "ated": 559,
      "ear": 560,
      "port": 561,
      "ĠIn": 562,
      "ous": 563,
      "one": 564,
      "ert": 565,
      "):": 566,
      "Ġint": 567,
      "Ġad": 568,
      "Ġtheir": 569,
      "ide": 570,
      "ĠK": 571,
      "ile": 572,
      "ence": 573,
      "Ġall": 574,
      "du": 575,
      "ĠJ": 576,
      "ast": 577,
      "are": 578,
      "Ġ-": 579,
      "ther": 580,
      "),": 581,
      "Ġme": 582,
      "gh": 583,
      "Ġcont": 584,
      "Ġj": 585,
      "fer": 586,
      "ru": 587,
      "ction": 588,
      "ip": 589,
      "ks": 590,
      "ens": 591,
      "Ġpr": 592,
      "cc": 593,
      "ang": 594,
      "self": 595,
      "ung": 596,
      "ong": 597,
      "Ã¤": 598,
      "ary": 599,
      "__": 600,
      "ry": 601,
      "ign": 602,
      "Ġdis": 603,
      "Ġ0": 604,
      "Ġthey": 605,
      "Ġwill": 606,
      "Ġ3": 607,
      "ĠV": 608,
      "ual": 609,
      "ire": 610,
      "int": 611,
      "de": 612,
      "Ġar": 613,
      "pr": 614,
      "Ġcl": 615,
      "ime": 616,
      "000": 617,
      "Ġder": 618,
      "urn": 619,
      "Ġz": 620,
      "..": 621,
      "oo": 622,
      "',": 623,
      "Ġdo": 624,
      "con": 625,
      "au": 626,
      "form": 627,
      "ĠĠĠĠĠĠĠĠĠĠĠĠĠĠĠĠ": 628,
      "vel": 629,
      "ice": 630,
      "her": 631,
      "Ġwhich": 632,
      "Ġdie": 633,
      "ces": 634,
      "ors": 635,
      "The": 636,
      "Ġman": 637,
      "Ġdef": 638,
      "xt": 639,
      "ack": 640,
      "ase": 641,
      "Ġte": 642,
      "Ġapp": 643,
      "ition": 644,
      "av": 645,
      "ild": 646,
      "ĠSt": 647,
      ").": 648,
      "Ġso": 649,
      "Ġper": 650,
      "we": 651,
      "ub": 652,
      "ord": 653,
      "Ġcomp": 654,
      "Ġmore": 655,
      "Ġabout": 656,
      "ite": 657,
      "hr": 658,
      "ace": 659,
      "ater": 660,
      "ia": 661,
      "ph": 662,
      "ood": 663,
      "Ġout": 664,
      "Ġ#": 665,
      "Ġhas": 666,
      "ne": 667,
      "ĠâĢ": 668,
      "so": 669,
      "get": 670,
      "ory": 671,
      "Ġev": 672,
      "lic": 673,
      "ft": 674,
      "Ġli": 675,
      "Ġone": 676,
      "ake": 677,
      "ating": 678,
      "Ġdes": 679,
      "ely": 680,
      "Ġbut": 681,
      "ep": 682,
      "ob": 683,
      "ms": 684,
      "Ġqu": 685,
      "01": 686,
      "Ġinter": 687,
      "Ġsc": 688,
      "ount": 689,
      "Ġpre": 690,
      "oll": 691,
      "Ġtr": 692,
      "Ġsp": 693,
      "ail": 694,
      "ose": 695,
      "ings": 696,
      "ound": 697,
      "ject": 698,
      "iel": 699,
      "Ġinto": 700,
      "**": 701,
      "Ġpart": 702,
      "now": 703,
      "ata": 704,
      "ck": 705,
      "Ġsy": 706,
      "Ġthese": 707,
      "Ġret": 708,
      "Ġcomm": 709,
      "ten": 710,
      "ov": 711,
      "Ġ[": 712,
      "pec": 713,
      "Ġ4": 714,
      "\"\"": 715,
      "Ġhow": 716,
      "Ġup": 717,
      "com": 718,
      "Ġbet": 719,
      "Ġother": 720,
      "che": 721,
      "Ġein": 722,
      "ari": 723,
      "Ġem": 724,
      "Ġro": 725,
      "ys": 726,
      "ric": 727,
      "ities": 728,
      "ates": 729,
      "Ġalso": 730,
      "Ġval": 731,
      "over": 732,
      "Ġunder": 733,
      "``": 734,
      "Ġtra": 735,
      "ree": 736,
      "rough": 737,
      "ific": 738,
      "rit": 739,
      "Ġwhen": 740,
      "uch": 741,
      "Ġour": 742,
      "âĢĿ": 743,
      "ĠThis": 744,
      "erv": 745,
      "lect": 746,
      "Ġra": 747,
      "Ġfe": 748,
      "ll": 749,
      "Ġsome": 750,
      "der": 751,
      "Ġtime": 752,
      "Ġ+": 753,
      "olog": 754,
      "()": 755,
      "ĠĠĠĠĠĠĠĠĠĠĠĠĠĠĠ": 756,
      "rib": 757,
      "Ġcre": 758,
      "cre": 759,
      "Ġdif": 760,
      "--------": 761,
      "Ġlike": 762,
      "eth": 763,
      "ays": 764,
      "Ġthem": 765,
      "ook": 766,
      "Ġstud": 767,
      "arn": 768,
      "Ġnum": 769,
      "les": 770,
      "Ġpe": 771,
      "Ġits": 772,
      "Ġreturn": 773,
      "Ġ5": 774,
      "Ġstr": 775,
      "Ġwere": 776,
      "Ġam": 777,
      "In": 778,
      "ise": 779,
      "ish": 780,
      "Ġmod": 781,
      "Ġthere": 782,
      "Ġwho": 783,
      "ics": 784,
      "ĠRe": 785,
      "Ġ19": 786,
      "cess": 787,
      "ient": 788,
      "ons": 789,
      "####": 790,
      "ally": 791,
      "ĠY": 792,
      "Ã¶": 793,
      "ds": 794,
      "ĠIt": 795,
      "':": 796,
      "Ġimport": 797,
      "Ġuse": 798,
      "lp": 799,
      "Ġthan": 800,
      "Ġknow": 801,
      "Ġrel": 802,
      "Ġwork": 803,
      "pro": 804,
      "Ġcons": 805,
      "ark": 806,
      "Ġass": 807,
      "Ġacc": 808,
      "Ġob": 809,
      "Ġover": 810,
      "ier": 811,
      "ype": 812,
      "Ġmay": 813,
      "Ġver": 814,
      "Ġag": 815,
      "stem": 816,
      "Ġer": 817,
      "ful": 818,
      "Ġtw": 819,
      "ative": 820,
      "ĠâĢľ": 821,
      "Ġnew": 822,
      "pect": 823,
      "cept": 824,
      "ied": 825,
      "its": 826,
      "ink": 827,
      "ict": 828,
      "irst": 829,
      "ract": 830,
      "Ġsuch": 831,
      "mer": 832,
      "als": 833,
      "Ġwhat": 834,
      "ures": 835,
      "Ġno": 836,
      "row": 837,
      "ener": 838,
      "Ġfl": 839,
      "Ġhis": 840,
      "Ġhelp": 841,
      "Ġact": 842,
      "Ġthrough": 843,
      "Ġbec": 844,
      "clud": 845,
      "uf": 846,
      "ss": 847,
      "Ġind": 848,
      "ode": 849,
      "tern": 850,
      "Ġany": 851,
      "ex": 852,
      "Ġcol": 853,
      "ĠCh": 854,
      "Ġdiffer": 855,
      "uring": 856,
      "ople": 857,
      "round": 858,
      "Ġneed": 859,
      "ian": 860,
      "Ġspec": 861,
      "ular": 862,
      "ize": 863,
      "Ġever": 864,
      "ange": 865,
      "Ġ\\": 866,
      "ility": 867,
      "ram": 868,
      "ower": 869,
      "ble": 870,
      "oint": 871,
      "res": 872,
      "ool": 873,
      "ments": 874,
      "erm": 875,
      "chn": 876,
      "('": 877,
      "Ġwould": 878,
      "ern": 879,
      "Ġget": 880,
      "eng": 881,
      "ew": 882,
      "))": 883,
      "Ġset": 884,
      "==": 885,
      "\",": 886,
      "ues": 887,
      "Ġreg": 888,
      "put": 889,
      "enc": 890,
      "ĠAn": 891,
      "Ġinst": 892,
      "reat": 893,
      "ĠUn": 894,
      "icht": 895,
      "ause": 896,
      "Ġke": 897,
      "ween": 898,
      "Ġpos": 899,
      "oth": 900,
      "Ġden": 901,
      "Ġbl": 902,
      "Ġinv": 903,
      "igh": 904,
      "Ġ$": 905,
      "Ġeff": 906,
      "ps": 907,
      "iss": 908,
      "ax": 909,
      "Ġprov": 910,
      "stand": 911,
      "ution": 912,
      "ann": 913,
      "Ġtwo": 914,
      "Ġadd": 915,
      "Ġpeople": 916,
      "name": 917,
      "ible": 918,
      "Ġrec": 919,
      "Ã¼r": 920,
      "ick": 921,
      "und": 922,
      "Ġexam": 923,
      "ress": 924,
      "Ġyear": 925,
      "Ġbetween": 926,
      "Ġrem": 927,
      "ational": 928,
      "Ġfun": 929,
      "Ġsa": 930,
      "arg": 931,
      "par": 932,
      "Ġinclud": 933,
      "Ġ6": 934,
      "Ġtest": 935,
      "ÂłÂł": 936,
      "own": 937,
      "Ġform": 938,
      "Ġvari": 939,
      "Ġ201": 940,
      "Ġbeen": 941,
      "ĠPro": 942,
      "be": 943,
      "Ġused": 944,
      "Ġwhere": 945,
      "Ġsub": 946,
      "velop": 947,
      "Th": 948,
      "Ġexpl": 949,
      "Ġ{": 950,
      "alth": 951,
      "Ġlearn": 952,
      "Ġph": 953,
      "ts": 954,
      "Ġfirst": 955,
      "Ġsol": 956,
      "Ġonly": 957,
      "ci": 958,
      "ock": 959,
      "Ġatt": 960,
      "Ġx": 961,
      "Ġpar": 962,
      "'t": 963,
      "Ġdata": 964,
      "Ġsim": 965,
      "Ġtrans": 966,
      "erg": 967,
      "Ġsch": 968,
      "ting": 969,
      "ential": 970,
      "ased": 971,
      "ines": 972,
      "Ġsystem": 973,
      "ement": 974,
      "Ġhad": 975,
      "Ġi": 976,
      "Ġequ": 977,
      "ug": 978,
      "Ġmany": 979,
      "Ġprodu": 980,
      "ĠWe": 981,
      "ced": 982,
      "fter": 983,
      "fore": 984,
      "val": 985,
      "],": 986,
      "ough": 987,
      "ices": 988,
      "Ġher": 989,
      "Ġevery": 990,
      "fl": 991,
      "Ġeach": 992,
      "Ġ\"\"\"": 993,
      "Ġdem": 994,
      "Ġel": 995,
      "ng": 996,
      "els": 997,
      "Ġac": 998,
      "ĠZ": 999,
      "pport": 1000,
      "Ġcall": 1001,
      "Ġexper": 1002,
      "ives": 1003,
      "Ġresult": 1004,
      "iew": 1005,
      "iet": 1006,
      "ont": 1007,
      "yp": 1008,
      "Ġzu": 1009,
      "Ġmost": 1010,
      "Ġsur": 1011,
      "wn": 1012,
      "ove": 1013,
      "Ġdist": 1014,
      "ield": 1015,
      "ĠWh": 1016,
      "Ġent": 1017,
      "ection": 1018,
      "Ġins": 1019,
      "Ġusing": 1020,
      "ins": 1021,
      "Ġpers": 1022,
      "Ġsm": 1023,
      "Ġgo": 1024,
      "Ġthen": 1025,
      "ute": 1026,
      "')": 1027,
      "Ġmit": 1028,
      "ren": 1029,
      "ever": 1030,
      "app": 1031,
      "Ġbu": 1032,
      "ife": 1033,
      "Ġrequ": 1034,
      "Ġcould": 1035,
      "Ġgra": 1036,
      "ature": 1037,
      "Ġdifferent": 1038,
      "hed": 1039,
      "Ġfind": 1040,
      "uss": 1041,
      "Ġdevelop": 1042,
      "Ġsign": 1043,
      "ruct": 1044,
      "ious": 1045,
      "ural": 1046,
      "aking": 1047,
      "ollow": 1048,
      "ident": 1049,
      "ix": 1050,
      "Ġvon": 1051,
      "Ġjust": 1052,
      "Ġge": 1053,
      "den": 1054,
      "Ġshould": 1055,
      "âĢ¢": 1056,
      "ists": 1057,
      "ror": 1058,
      "10": 1059,
      "vent": 1060,
      "Ġ.": 1061,
      "ah": 1062,
      "ism": 1063,
      "Ġeven": 1064,
      "ider": 1065,
      "earch": 1066,
      "ik": 1067,
      "ork": 1068,
      "Ġdisc": 1069,
      "Ġcur": 1070,
      "Ġ:": 1071,
      "esent": 1072,
      "iqu": 1073,
      "Ġnumber": 1074,
      "Ġwhile": 1075,
      "ene": 1076,
      "Ġmat": 1077,
      "Ġmy": 1078,
      "ily": 1079,
      "chen": 1080,
      "ĠFor": 1081,
      "ade": 1082,
      "gan": 1083,
      "ward": 1084,
      "formation": 1085,
      "Ġ7": 1086,
      "ages": 1087,
      "ĠDe": 1088,
      "to": 1089,
      "ond": 1090,
      "Ġoff": 1091,
      "oy": 1092,
      "Ġdet": 1093,
      "ĠĠĠĠĠ": 1094,
      "other": 1095,
      "Ġ10": 1096,
      "Ġsee": 1097,
      "._": 1098,
      "ethod": 1099,
      "Ġpol": 1100,
      "Ġworld": 1101,
      "Ġchild": 1102,
      "Ġtechn": 1103,
      "pos": 1104,
      "Ġ200": 1105,
      "imes": 1106,
      "up": 1107,
      "ĠAl": 1108,
      "Ġist": 1109,
      "Ġdec": 1110,
      "ically": 1111,
      "aw": 1112,
      "Ġauf": 1113,
      "Ġsoc": 1114,
      "Ġunderstand": 1115,
      "Ġ%": 1116,
      "ences": 1117,
      "text": 1118,
      "ĠIf": 1119,
      "Ġcommun": 1120,
      "Ġmake": 1121,
      "ĠSe": 1122,
      "ĠHe": 1123,
      "hip": 1124,
      "ĠAr": 1125,
      "Ġcomple": 1126,
      "Ġ8": 1127,
      "Ġfollow": 1128,
      "Ġgener": 1129,
      "read": 1130,
      "Ġdas": 1131,
      "set": 1132,
      "Ġbel": 1133,
      "ĠEx": 1134,
      "ĠCom": 1135,
      "Ġes": 1136,
      "Ġvalue": 1137,
      "ology": 1138,
      "lich": 1139,
      "Ġext": 1140,
      "ivid": 1141,
      "Ġincre": 1142,
      "itt": 1143,
      "Ġhealth": 1144,
      "rue": 1145,
      "Ġwell": 1146,
      "Ġco": 1147,
      "ĠHow": 1148,
      "old": 1149,
      "def": 1150,
      "gen": 1151,
      "press": 1152,
      "Ġend": 1153,
      "Ġpoint": 1154,
      "ized": 1155,
      "Ġway": 1156,
      "Ġhigh": 1157,
      "ands": 1158,
      "Ġ`": 1159,
      "tt": 1160,
      "ants": 1161,
      "...": 1162,
      "red": 1163,
      "Ġprocess": 1164,
      "Ġthose": 1165,
      "str": 1166,
      "Ġart": 1167,
      "Ġed": 1168,
      "Ġread": 1169,
      "Ġduring": 1170,
      "uc": 1171,
      "Ġright": 1172,
      "Ġmed": 1173,
      "ption": 1174,
      "led": 1175,
      "ÃŁ": 1176,
      "Ġfact": 1177,
      "Ġmin": 1178,
      "arm": 1179,
      "Ġhum": 1180,
      "dition": 1181,
      "Ġdoes": 1182,
      "Ġclass": 1183,
      "inal": 1184,
      "Ġbecause": 1185,
      "Ġ_": 1186,
      "ĠBe": 1187,
      "ĠfÃ¼r": 1188,
      "att": 1189,
      "Ġloc": 1190,
      "ars": 1191,
      "ze": 1192,
      "Ġsom": 1193,
      "ivers": 1194,
      "iven": 1195,
      "ving": 1196,
      "Ġboth": 1197,
      "Ġaut": 1198,
      "ĠAs": 1199,
      "Ġlong": 1200,
      "Ġfound": 1201,
      "Ġpat": 1202,
      "Ġsk": 1203,
      "cul": 1204,
      "ience": 1205,
      "ually": 1206,
      "['": 1207,
      "Ġhist": 1208,
      "']": 1209,
      "Ġ9": 1210,
      "hem": 1211,
      "Ġcor": 1212,
      "ember": 1213,
      "Ġpartic": 1214,
      "ER": 1215,
      "Ġproble": 1216,
      "ule": 1217,
      "Ġstart": 1218,
      "(\"": 1219,
      "12": 1220,
      "Ġprog": 1221,
      "ator": 1222,
      "Ġwater": 1223,
      "ited": 1224,
      "iver": 1225,
      "hes": 1226,
      "bers": 1227,
      "Ġback": 1228,
      "Ġresp": 1229,
      "line": 1230,
      "ness": 1231,
      "Ġcent": 1232,
      "ank": 1233,
      "iter": 1234,
      "iron": 1235,
      "Ġcount": 1236,
      "aus": 1237,
      "Ġappro": 1238,
      "Ġfunction": 1239,
      "Ġyears": 1240,
      "io": 1241,
      "mod": 1242,
      "Ġshe": 1243,
      "ave": 1244,
      "Ġexample": 1245,
      "Ġeffect": 1246,
      "Ġwithin": 1247,
      "ows": 1248,
      "Ġsame": 1249,
      "ght": 1250,
      "ody": 1251,
      "roup": 1252,
      "assert": 1253,
      "path": 1254,
      "ined": 1255,
      "ger": 1256,
      "Ġafter": 1257,
      "19": 1258,
      "Ġgl": 1259,
      "Ġbr": 1260,
      "ases": 1261,
      "cent": 1262,
      "Ġlead": 1263,
      "from": 1264,
      "ale": 1265,
      "ĠSch": 1266,
      "kt": 1267,
      "Ġfam": 1268,
      "anc": 1269,
      "Ġown": 1270,
      "Ġ&": 1271,
      "Ġconf": 1272,
      "ality": 1273,
      "ves": 1274,
      "rent": 1275,
      "ify": 1276,
      "arly": 1277,
      "ĠĠĠĠĠĠĠĠĠĠĠĠĠĠĠĠĠĠĠ": 1278,
      "Ġpract": 1279,
      "Ġconst": 1280,
      "Ġbeing": 1281,
      "oh": 1282,
      "20": 1283,
      "Ġmight": 1284,
      "ense": 1285,
      "irect": 1286,
      "____": 1287,
      "ĠQ": 1288,
      "čĊ": 1289,
      "Ġ*": 1290,
      "Ġpower": 1291,
      "Ġmain": 1292,
      "ner": 1293,
      "Ġlife": 1294,
      "Ġbefore": 1295,
      "Ġquest": 1296,
      "Ġname": 1297,
      "ved": 1298,
      "itions": 1299,
      "//": 1300,
      "ather": 1301,
      "viron": 1302,
      "Ġresearch": 1303,
      "Ġmethod": 1304,
      "ublic": 1305,
      "Ġsich": 1306,
      "St": 1307,
      "ĠThey": 1308,
      "Ġ18": 1309,
      "----------------": 1310,
      "ĠYou": 1311,
      "Ġaround": 1312,
      "ross": 1313,
      "Ġpass": 1314,
      "Ġop": 1315,
      "Ġperson": 1316,
      "11": 1317,
      "ource": 1318,
      "ired": 1319,
      "ency": 1320,
      "ateg": 1321,
      "AT": 1322,
      "Ġcalled": 1323,
      "oad": 1324,
      "any": 1325,
      "meric": 1326,
      "Ġinformation": 1327,
      "Ġcontin": 1328,
      "vers": 1329,
      "Ġ==": 1330,
      "ets": 1331,
      "ional": 1332,
      "air": 1333,
      "Ġmuch": 1334,
      "ends": 1335,
      "Ġnicht": 1336,
      "akes": 1337,
      ".,": 1338,
      "ability": 1339,
      "Ġchar": 1340,
      "Ġgrow": 1341,
      "ray": 1342,
      "Ġstudents": 1343,
      "ull": 1344,
      "Ġplay": 1345,
      "Ġcal": 1346,
      "gg": 1347,
      "Ġ20": 1348,
      "ĠNone": 1349,
      "IN": 1350,
      "ĠCon": 1351,
      "Ġvis": 1352,
      "Ġwir": 1353,
      "raph": 1354,
      "Ġconn": 1355,
      "###": 1356,
      "Ġcult": 1357,
      "ok": 1358,
      "Ġsl": 1359,
      "Ġmon": 1360,
      "Ġref": 1361,
      "alse": 1362,
      "Ġele": 1363,
      "ividual": 1364,
      "Ġlet": 1365,
      "Ġlevel": 1366,
      "Ġvery": 1367,
      "Ġdown": 1368,
      "ty": 1369,
      "ĠLe": 1370,
      "Ġlook": 1371,
      "Ġsmall": 1372,
      "ared": 1373,
      "Ġlist": 1374,
      "Ġserv": 1375,
      "ples": 1376,
      "########": 1377,
      "ital": 1378,
      "ning": 1379,
      "men": 1380,
      "ization": 1381,
      "Ġdesign": 1382,
      "Ġsupport": 1383,
      "ape": 1384,
      "Ġprovid": 1385,
      "Ġgu": 1386,
      "Ġ<": 1387,
      "Ġimportant": 1388,
      "Ġcar": 1389,
      "Ġav": 1390,
      "Ġmust": 1391,
      "rol": 1392,
      "ĠAd": 1393,
      "ining": 1394,
      "Ġpop": 1395,
      "Ġeng": 1396,
      "ĠBy": 1397,
      "\")": 1398,
      "Ġline": 1399,
      "ĠThese": 1400,
      "Ġposs": 1401,
      "ser": 1402,
      "Ġthink": 1403,
      "ince": 1404,
      "Wh": 1405,
      "ories": 1406,
      "wer": 1407,
      "day": 1408,
      "gr": 1409,
      "Ġless": 1410,
      "ĠAmeric": 1411,
      "fe": 1412,
      "Ġobject": 1413,
      "por": 1414,
      "Ġoften": 1415,
      "ote": 1416,
      "ourse": 1417,
      "Ġindividual": 1418,
      "Ġconsider": 1419,
      "====": 1420,
      "Re": 1421,
      "Ġser": 1422,
      "igen": 1423,
      "pre": 1424,
      "ox": 1425,
      "Ġreal": 1426,
      "Ġ|": 1427,
      "Ġagain": 1428,
      "bs": 1429,
      "aut": 1430,
      "me": 1431,
      "class": 1432,
      "ength": 1433,
      "Ġmade": 1434,
      "enn": 1435,
      "ĠSo": 1436,
      "ault": 1437,
      "land": 1438,
      "Ġbuild": 1439,
      "iving": 1440,
      "ains": 1441,
      "urch": 1442,
      "Ġprot": 1443,
      "Ġmet": 1444,
      "type": 1445,
      "Ġident": 1446,
      "itive": 1447,
      "Ġmult": 1448,
      "the": 1449,
      "ames": 1450,
      "Ġtake": 1451,
      "Ġnow": 1452,
      "for": 1453,
      "Ġmov": 1454,
      "Ġwant": 1455,
      "Ġcare": 1456,
      "Ġadv": 1457,
      "Ġdel": 1458,
      "Ġbeh": 1459,
      "Ġelse": 1460,
      "Ġest": 1461,
      "cri": 1462,
      "Ġtry": 1463,
      "ources": 1464,
      "Ġactiv": 1465,
      "ument": 1466,
      "pend": 1467,
      "ergy": 1468,
      "Ġeine": 1469,
      "Ġday": 1470,
      "ven": 1471,
      ".\"": 1472,
      "ON": 1473,
      "Ġstat": 1474,
      "Ġstudy": 1475,
      "Ġpot": 1476,
      "Ġgood": 1477,
      "25": 1478,
      "az": 1479,
      "Ġtype": 1480,
      "Ġhand": 1481,
      "atch": 1482,
      "qual": 1483,
      "sh": 1484,
      "Ġrepr": 1485,
      "ique": 1486,
      "Er": 1487,
      "ĠTe": 1488,
      "ision": 1489,
      "less": 1490,
      "apt": 1491,
      "Ġbest": 1492,
      "vironment": 1493,
      "Ġanal": 1494,
      "Ġinf": 1495,
      "Ġorgan": 1496,
      "Ġfood": 1497,
      "aterial": 1498,
      "Ġide": 1499,
      "$$": 1500,
      "requ": 1501,
      "ĠSp": 1502,
      "ĠBut": 1503,
      "Ġcreate": 1504,
      "Ġbre": 1505,
      "Ġche": 1506,
      "cond": 1507,
      "ĠInd": 1508,
      "Ġdi": 1509,
      "Ġaus": 1510,
      "ination": 1511,
      "ribut": 1512,
      "ash": 1513,
      "angu": 1514,
      "mb": 1515,
      "ately": 1516,
      "rac": 1517,
      "Ġinvol": 1518,
      "Ġdid": 1519,
      "Ġtyp": 1520,
      "work": 1521,
      "Ġwar": 1522,
      "ĠIm": 1523,
      "||": 1524,
      "ccess": 1525,
      "This": 1526,
      "Ġwrit": 1527,
      "uro": 1528,
      "ĠSie": 1529,
      "oun": 1530,
      "overn": 1531,
      "ĠAnd": 1532,
      "Ġauch": 1533,
      "Ġet": 1534,
      "Ġprof": 1535,
      "Ġmean": 1536,
      "ungen": 1537,
      "tain": 1538,
      "Ġhuman": 1539,
      "Ġschool": 1540,
      "rag": 1541,
      "Ġthree": 1542,
      "Ġvers": 1543,
      "cur": 1544,
      "Ġcle": 1545,
      "Ġtem": 1546,
      "ively": 1547,
      "Ġkey": 1548,
      "Ġredu": 1549,
      "ished": 1550,
      "ĉĉ": 1551,
      "Ġwithout": 1552,
      "Ġelect": 1553,
      "min": 1554,
      "ww": 1555,
      "oring": 1556,
      "ething": 1557,
      "ids": 1558,
      "Ġ)": 1559,
      "50": 1560,
      "view": 1561,
      "Ġvarious": 1562,
      "Ġimp": 1563,
      "ES": 1564,
      "ats": 1565,
      "Ġchange": 1566,
      "Ġchildren": 1567,
      "Ġopt": 1568,
      "ron": 1569,
      "{\\": 1570,
      "Ġâ": 1571,
      "arch": 1572,
      "acter": 1573,
      "Ġsignific": 1574,
      "Ġfil": 1575,
      "Ġhab": 1576,
      "Ġmem": 1577,
      "ĠPl": 1578,
      "br": 1579,
      "ertain": 1580,
      "Ġsever": 1581,
      "Ġchall": 1582,
      "net": 1583,
      "Ġchang": 1584,
      "gin": 1585,
      "oss": 1586,
      "Ġdon": 1587,
      "wh": 1588,
      "Ġanother": 1589,
      "Ġsaid": 1590,
      "Ġgiven": 1591,
      "yn": 1592,
      "Ġaw": 1593,
      "Ġcommon": 1594,
      "Ġ**": 1595,
      "âĢľ": 1596,
      "omen": 1597,
      "Ġlearning": 1598,
      "alk": 1599,
      "yth": 1600,
      "Ġmeas": 1601,
      "Ġoper": 1602,
      "Ġdies": 1603,
      "Ġbody": 1604,
      "thers": 1605,
      "Ġaff": 1606,
      "Ġincluding": 1607,
      "Ġ12": 1608,
      "nen": 1609,
      "Ġinterest": 1610,
      "Ġsomething": 1611,
      "Ġshow": 1612,
      "iversity": 1613,
      "irc": 1614,
      "ĠSh": 1615,
      "ering": 1616,
      "Ġspe": 1617,
      "Ġdr": 1618,
      "Ġmark": 1619,
      "Ġarg": 1620,
      "elt": 1621,
      "Error": 1622,
      "ances": 1623,
      "Ġiss": 1624,
      "AR": 1625,
      "Ġbetter": 1626,
      "ahr": 1627,
      "Ã¼ber": 1628,
      "ived": 1629,
      "ling": 1630,
      "by": 1631,
      "Ġ>": 1632,
      "Ġgre": 1633,
      "ulation": 1634,
      "Ġgr": 1635,
      "Ġocc": 1636,
      "Ġproper": 1637,
      "])": 1638,
      "test": 1639,
      "rodu": 1640,
      "Ġfin": 1641,
      "li": 1642,
      "sch": 1643,
      "Ġstand": 1644,
      "ways": 1645,
      "ral": 1646,
      "right": 1647,
      "Ġcap": 1648,
      "ien": 1649,
      "ently": 1650,
      "18": 1651,
      "Ġfollowing": 1652,
      "Ġcell": 1653,
      "Ġ/": 1654,
      "Ġenc": 1655,
      "of": 1656,
      "Ġwer": 1657,
      "iness": 1658,
      "olum": 1659,
      "Ġris": 1660,
      "ĠNew": 1661,
      "ables": 1662,
      "atic": 1663,
      "='": 1664,
      "eter": 1665,
      "```": 1666,
      "dict": 1667,
      "ead": 1668,
      "ots": 1669,
      "ec": 1670,
      "Ġdirect": 1671,
      "Ġeas": 1672,
      "file": 1673,
      "Ġstate": 1674,
      "16": 1675,
      "Ġorder": 1676,
      "rite": 1677,
      "Ġknown": 1678,
      "ries": 1679,
      "IT": 1680,
      "Ġgen": 1681,
      "ior": 1682,
      "Ġproduct": 1683,
      "Ġens": 1684,
      "oci": 1685,
      "ought": 1686,
      "Ġimpro": 1687,
      "clus": 1688,
      "Ġcurrent": 1689,
      "add": 1690,
      "Ġsocial": 1691,
      "arge": 1692,
      "Ġtop": 1693,
      "ben": 1694,
      "Ġess": 1695,
      "Ġopen": 1696,
      "Ġbas": 1697,
      "Ġbased": 1698,
      "15": 1699,
      "13": 1700,
      "ma": 1701,
      "ified": 1702,
      "Ġteach": 1703,
      "Ġenergy": 1704,
      "ĠOn": 1705,
      "Ġprom": 1706,
      "Ġperform": 1707,
      "ental": 1708,
      "data": 1709,
      "\":": 1710,
      "Ġhere": 1711,
      "ĠX": 1712,
      "lish": 1713,
      "Ġfeel": 1714,
      "Ġmus": 1715,
      "Ġstill": 1716,
      "Ġtoget": 1717,
      "Ġtogether": 1718,
      "Ġhapp": 1719,
      "Ġeduc": 1720,
      "iod": 1721,
      "Ġmaterial": 1722,
      "Ġmeans": 1723,
      "ĠEn": 1724,
      "Ġtoo": 1725,
      "Ġproject": 1726,
      "Ġnon": 1727,
      "Ġconnect": 1728,
      "amp": 1729,
      "ĠIs": 1730,
      "rain": 1731,
      "ams": 1732,
      "Ġdev": 1733,
      "ems": 1734,
      "Ġlog": 1735,
      "Ġrun": 1736,
      "ocus": 1737,
      "ample": 1738,
      "Ġexp": 1739,
      "True": 1740,
      "Ġgroup": 1741,
      "apter": 1742,
      "ane": 1743,
      "Ġhim": 1744,
      "Ġpres": 1745,
      ".âĢĿ": 1746,
      "Ġphys": 1747,
      "ĠHowever": 1748,
      "Ġothers": 1749,
      "comm": 1750,
      "ĠRes": 1751,
      "Ġcomplex": 1752,
      "Ġenvironment": 1753,
      "Ġallow": 1754,
      "ler": 1755,
      "=\"": 1756,
      "ĠTo": 1757,
      "ills": 1758,
      "part": 1759,
      "alt": 1760,
      "ĠWhen": 1761,
      "ights": 1762,
      "Ġplace": 1763,
      "args": 1764,
      "Ġvalues": 1765,
      "ason": 1766,
      "ĠWhat": 1767,
      "://": 1768,
      "ches": 1769,
      "14": 1770,
      "Ġbelie": 1771,
      "Ġter": 1772,
      "ouse": 1773,
      "ĠVer": 1774,
      "ields": 1775,
      "sy": 1776,
      "ication": 1777,
      "Ġfac": 1778,
      "conom": 1779,
      "Ġlangu": 1780,
      "Ġunt": 1781,
      "Ġsit": 1782,
      "Ġpresent": 1783,
      "ĠEng": 1784,
      "Ġtreat": 1785,
      "ĠThere": 1786,
      "sc": 1787,
      "17": 1788,
      "Ġcalcul": 1789,
      "Ġkeep": 1790,
      "ĠOr": 1791,
      "onse": 1792,
      "Ġpotential": 1793,
      "Ġstruct": 1794,
      "key": 1795,
      "ograph": 1796,
      "ask": 1797,
      "ĠCl": 1798,
      "hor": 1799,
      "Ġamong": 1800,
      "Ġthings": 1801,
      "Ġans": 1802,
      "Ġfile": 1803,
      "lt": 1804,
      "Ġgreat": 1805,
      "Ġdue": 1806,
      "uture": 1807,
      "Ġfri": 1808,
      "Ġmodel": 1809,
      "raw": 1810,
      "OR": 1811,
      "Ġcase": 1812,
      "Ġinc": 1813,
      "Ġlim": 1814,
      "}}": 1815,
      "Ġproblem": 1816,
      "imal": 1817,
      "ted": 1818,
      "urther": 1819,
      "EN": 1820,
      "AL": 1821,
      "olution": 1822,
      "Ex": 1823,
      "Ġ15": 1824,
      "ĠGe": 1825,
      "Ġunderstanding": 1826,
      "30": 1827,
      "oms": 1828,
      "ope": 1829,
      "ards": 1830,
      "Ġleg": 1831,
      "Ġinclude": 1832,
      "aj": 1833,
      "Ġgovern": 1834,
      "Ġbecome": 1835,
      "ium": 1836,
      "omet": 1837,
      "ention": 1838,
      "Ġsignificant": 1839,
      "imate": 1840,
      "Ġspecific": 1841,
      "Ġrest": 1842,
      "opy": 1843,
      "Ġhistory": 1844,
      "Ġhat": 1845,
      "Ġalong": 1846,
      "Ġnat": 1847,
      "ditions": 1848,
      "man": 1849,
      "ogn": 1850,
      "ĠÃ¼ber": 1851,
      "ury": 1852,
      "Ġtext": 1853,
      "ially": 1854,
      "As": 1855,
      "Ġcrit": 1856,
      "Ġinte": 1857,
      "Ġorig": 1858,
      "Ġhome": 1859,
      "not": 1860,
      "Ġcomput": 1861,
      "ording": 1862,
      "ware": 1863,
      "Ġpost": 1864,
      "ges": 1865,
      "Ġrepresent": 1866,
      "Ġexpress": 1867,
      "Ġinde": 1868,
      "Ġpublic": 1869,
      "ological": 1870,
      "ĠEr": 1871,
      "An": 1872,
      "import": 1873,
      "wards": 1874,
      "Ġlaw": 1875,
      "Ġtri": 1876,
      "ÂłÂłÂłÂł": 1877,
      "face": 1878,
      "ients": 1879,
      "ton": 1880,
      "orn": 1881,
      "Ġaccess": 1882,
      "Ġarea": 1883,
      "Ġ16": 1884,
      "ols": 1885,
      "rop": 1886,
      "Ġwerden": 1887,
      "Ġprogram": 1888,
      "Ġparticular": 1889,
      "rans": 1890,
      "ĠÂł": 1891,
      "arth": 1892,
      "agement": 1893,
      "201": 1894,
      "Ġstep": 1895,
      "urs": 1896,
      "arget": 1897,
      "izing": 1898,
      "Ġoder": 1899,
      "Ġpath": 1900,
      "Ġwhy": 1901,
      "Ġals": 1902,
      "oid": 1903,
      "Ġfocus": 1904,
      "Ġinfl": 1905,
      "ĠPh": 1906,
      "Equal": 1907,
      "Ġmaking": 1908,
      "Ġturn": 1909,
      "abor": 1910,
      "Ġdiscuss": 1911,
      "Ġmulti": 1912,
      "Ġsuccess": 1913,
      "ole": 1914,
      "ungs": 1915,
      "Ġprovide": 1916,
      "Ġagainst": 1917,
      "url": 1918,
      "Ġimm": 1919,
      "Ġrelations": 1920,
      "atures": 1921,
      "None": 1922,
      "\"\"\"": 1923,
      "aces": 1924,
      "Ġsupp": 1925,
      "Ġfield": 1926,
      "ender": 1927,
      "agine": 1928,
      "ischen": 1929,
      "use": 1930,
      "Ġacross": 1931,
      "Ġlast": 1932,
      "Ġcontrol": 1933,
      "Ġlight": 1934,
      "Ġseveral": 1935,
      "ek": 1936,
      "Ġpossible": 1937,
      "Ġdise": 1938,
      ",\"": 1939,
      "aster": 1940,
      "Ġdevelopment": 1941,
      "erc": 1942,
      "Ġview": 1943,
      "Ch": 1944,
      "Ġbus": 1945,
      "Ġbene": 1946,
      "Ġwhe": 1947,
      "Ġsum": 1948,
      "Ġsecond": 1949,
      "ides": 1950,
      "Ġlarge": 1951,
      "ission": 1952,
      "Ġcr": 1953,
      "ĠĠĠĠĠĠĠĠĠĠĠĠĠĠĠĠĠĠĠĠĠĠĠĠĠĠĠĠĠĠĠĠ": 1954,
      "value": 1955,
      "Ġchalleng": 1956,
      "Ġlocal": 1957,
      "list": 1958,
      "Ġold": 1959,
      "ĠEuro": 1960,
      "Ġtimes": 1961,
      "Ġdeterm": 1962,
      "Ġprint": 1963,
      "It": 1964,
      "Ġreport": 1965,
      "ians": 1966,
      "bl": 1967,
      "22": 1968,
      "Ġhead": 1969,
      "inter": 1970,
      "Ġexcept": 1971,
      "iety": 1972,
      "ilities": 1973,
      "ilar": 1974,
      "Ġworks": 1975,
      "ython": 1976,
      "icle": 1977,
      "Ġcomb": 1978,
      "Ġcourse": 1979,
      "Ġcaus": 1980,
      "istic": 1981,
      "ery": 1982,
      "Ġconcept": 1983,
      "ibr": 1984,
      "ils": 1985,
      "Ġapplic": 1986,
      "Ã¶n": 1987,
      "ĠThat": 1988,
      "Ġ}": 1989,
      "Ġexperi": 1990,
      "ators": 1991,
      "ivity": 1992,
      "ooks": 1993,
      "We": 1994,
      "play": 1995,
      "Ġsay": 1996,
      "Ġ,": 1997,
      "ploy": 1998,
      "Ġsince": 1999,
      "Ġfamily": 2000,
      "Ġsind": 2001,
      "Ġalways": 2002,
      "date": 2003,
      "Con": 2004,
      "Ġcertain": 2005,
      "To": 2006,
      "ither": 2007,
      "ret": 2008,
      "pected": 2009,
      "Ġinit": 2010,
      "ext": 2011,
      "Ġnext": 2012,
      "ours": 2013,
      "ailable": 2014,
      "Ġnet": 2015,
      "ysis": 2016,
      "inary": 2017,
      "Ġinvest": 2018,
      "ĠDie": 2019,
      "Ġmag": 2020,
      "AN": 2021,
      "ĠAll": 2022,
      "crib": 2023,
      "Ġperiod": 2024,
      "ĠÃ": 2025,
      "rect": 2026,
      "duct": 2027,
      "Ġnumbers": 2028,
      "Ġsystems": 2029,
      "40": 2030,
      "Ġcontext": 2031,
      "Ġspecial": 2032,
      "Ġbo": 2033,
      "rel": 2034,
      "ml": 2035,
      "ste": 2036,
      "ĠMe": 2037,
      "Ġexist": 2038,
      "aring": 2039,
      "Ġsing": 2040,
      "Ġvor": 2041,
      "Ġ__": 2042,
      "Ġcost": 2043,
      "Ġresults": 2044,
      "Ġdig": 2045,
      "Ġassert": 2046,
      "Ġpress": 2047,
      "Ġich": 2048,
      "SE": 2049,
      "sp": 2050,
      "aging": 2051,
      "let": 2052,
      "Ġ17": 2053,
      "Ġessential": 2054,
      "idence": 2055,
      "Ġum": 2056,
      "outh": 2057,
      "af": 2058,
      "Ġimpact": 2059,
      "ises": 2060,
      "32": 2061,
      "init": 2062,
      "log": 2063,
      "Ġask": 2064,
      "inf": 2065,
      "math": 2066,
      "ration": 2067,
      "fic": 2068,
      "Ġunique": 2069,
      "Ġquestion": 2070,
      "ken": 2071,
      "geb": 2072,
      "iting": 2073,
      "....": 2074,
      "Ġcirc": 2075,
      "nder": 2076,
      "ittle": 2077,
      "Ġbei": 2078,
      "Ġthought": 2079,
      "Ġproblems": 2080,
      "ST": 2081,
      "ĠAt": 2082,
      "iert": 2083,
      "Ġpain": 2084,
      "Ġrole": 2085,
      "Ġassoci": 2086,
      "Ġaddition": 2087,
      "ĠSy": 2088,
      "ored": 2089,
      "Ġcome": 2090,
      "ledge": 2091,
      "Ġbi": 2092,
      "Ġlanguage": 2093,
      "mp": 2094,
      "ctions": 2095,
      "ĠAmerican": 2096,
      "Ġpo": 2097,
      "Ġstrateg": 2098,
      "Ġdiscover": 2099,
      "Ġrange": 2100,
      "lished": 2101,
      "asing": 2102,
      "serv": 2103,
      "ests": 2104,
      "org": 2105,
      "acy": 2106,
      "Ġnorm": 2107,
      "Ġmil": 2108,
      "Ġfuture": 2109,
      "ety": 2110,
      "Ġspace": 2111,
      "oin": 2112,
      "reg": 2113,
      "Ġ199": 2114,
      "ĠWith": 2115,
      "Ġeconom": 2116,
      "ĠChr": 2117,
      "ĠComm": 2118,
      "lection": 2119,
      "illion": 2120,
      "Ġconc": 2121,
      "Ġplan": 2122,
      "Ġant": 2123,
      "Ġrelationship": 2124,
      "Ġways": 2125,
      "aps": 2126,
      "Ġcontain": 2127,
      "opt": 2128,
      "Ã¤t": 2129,
      "Ġrele": 2130,
      "Ġoffer": 2131,
      "ĠOne": 2132,
      "ribute": 2133,
      "met": 2134,
      "ister": 2135,
      "Ġaffect": 2136,
      "Ġair": 2137,
      "Ġcharacter": 2138,
      "obal": 2139,
      "time": 2140,
      "plic": 2141,
      "assertEqual": 2142,
      "Ġrespons": 2143,
      "Ġuntil": 2144,
      "ream": 2145,
      "roups": 2146,
      "Ġmot": 2147,
      "Ġbro": 2148,
      "33": 2149,
      "Ġcode": 2150,
      "Ġearly": 2151,
      "bo": 2152,
      "ns": 2153,
      "Ġtre": 2154,
      "Ġfew": 2155,
      "Al": 2156,
      "ring": 2157,
      "If": 2158,
      "Ġsie": 2159,
      "Ġscient": 2160,
      "_{": 2161,
      "Ġ14": 2162,
      "aft": 2163,
      "Ġ('": 2164,
      "och": 2165,
      "\\$": 2166,
      "utions": 2167,
      "elves": 2168,
      "ĠQu": 2169,
      "Ġtoday": 2170,
      "24": 2171,
      "200": 2172,
      "Ġhig": 2173,
      "ĠAb": 2174,
      "Ġquestions": 2175,
      "Pro": 2176,
      "Ġland": 2177,
      "Ġbehav": 2178,
      "plement": 2179,
      "Ġabove": 2180,
      "Ġfree": 2181,
      "Ġwomen": 2182,
      "Ġrefer": 2183,
      "Ġdass": 2184,
      "ĠÂ": 2185,
      "ĠFr": 2186,
      "Ġnach": 2187,
      "Ġpa": 2188,
      "ey": 2189,
      "orth": 2190,
      "inst": 2191,
      "Ġwird": 2192,
      "fil": 2193,
      "ĠâĢĺ": 2194,
      "ĠTrue": 2195,
      "Ġcheck": 2196,
      "Ġmeasure": 2197,
      "ĠPr": 2198,
      "Ġlow": 2199,
      "ige": 2200,
      "Ġnecess": 2201,
      "Ġsize": 2202,
      "yle": 2203,
      "Ġrece": 2204,
      "Ġexc": 2205,
      "nal": 2206,
      "Ġavailable": 2207,
      "ĠFl": 2208,
      "vious": 2209,
      "Ġsw": 2210,
      "ements": 2211,
      "ipp": 2212,
      "Ġpolit": 2213,
      "IC": 2214,
      "esch": 2215,
      "cont": 2216,
      "Ġupon": 2217,
      "Ġfar": 2218,
      "What": 2219,
      "ĠNe": 2220,
      "Ġsimilar": 2221,
      "Ġstrong": 2222,
      "db": 2223,
      "Ġrad": 2224,
      "Ġrisk": 2225,
      "rie": 2226,
      "ession": 2227,
      "my": 2228,
      "ised": 2229,
      "abel": 2230,
      "Ġhistor": 2231,
      "load": 2232,
      "Ġ@": 2233,
      "Ġconditions": 2234,
      "thing": 2235,
      "Ġ11": 2236,
      "ibility": 2237,
      "essage": 2238,
      "Ġaddress": 2239,
      "Ġable": 2240,
      "ffic": 2241,
      "Ġsimple": 2242,
      "Ġhard": 2243,
      "Im": 2244,
      "side": 2245,
      "Ġtradition": 2246,
      "Ġwords": 2247,
      "ĠUniversity": 2248,
      "Ġbegin": 2249,
      "Ġshort": 2250,
      "Ġtypes": 2251,
      "ones": 2252,
      "[\"": 2253,
      "ott": 2254,
      "Ġamount": 2255,
      "ules": 2256,
      "Ġ13": 2257,
      "Ġresources": 2258,
      "Ġexplore": 2259,
      "60": 2260,
      "Ġemb": 2261,
      "Ġfour": 2262,
      "Ġprob": 2263,
      "RE": 2264,
      "cle": 2265,
      "Ġleft": 2266,
      "ails": 2267,
      "place": 2268,
      "fig": 2269,
      "ector": 2270,
      "ID": 2271,
      "Ġmind": 2272,
      "ĠCan": 2273,
      "ajor": 2274,
      "Ġareas": 2275,
      "Ġexperience": 2276,
      "Ġworking": 2277,
      "cing": 2278,
      "ina": 2279,
      "Ġcommunity": 2280,
      "ĠApp": 2281,
      "Ġ$$": 2282,
      "Ġ30": 2283,
      "Ġneg": 2284,
      "onder": 2285,
      ",âĢĿ": 2286,
      "ush": 2287,
      "For": 2288,
      "Ġinflu": 2289,
      "back": 2290,
      "Ġkind": 2291,
      "Ġhaving": 2292,
      "lying": 2293,
      "Ġunit": 2294,
      "Ġindividuals": 2295,
      "ĠStud": 2296,
      "pportun": 2297,
      "Ġdam": 2298,
      "zen": 2299,
      "ney": 2300,
      "asc": 2301,
      "clusion": 2302,
      "ĠChrist": 2303,
      "iques": 2304,
      "frac": 2305,
      "Ġsuper": 2306,
      "Ġput": 2307,
      "'re": 2308,
      "Ġmonth": 2309,
      "Ġill": 2310,
      "Ġ100": 2311,
      "Ġpattern": 2312,
      "Ġnatural": 2313,
      "Ġprotect": 2314,
      "orld": 2315,
      "ĠĠĠĠĠĠ": 2316,
      "Ġinstance": 2317,
      "ilt": 2318,
      "cription": 2319,
      "Ġgive": 2320,
      "Ġbusiness": 2321,
      "ĠInst": 2322,
      "Ġterm": 2323,
      "ires": 2324,
      "Ġlittle": 2325,
      "icro": 2326,
      "Ġmax": 2327,
      "Ġsein": 2328,
      "Ġoutput": 2329,
      "LE": 2330,
      "Ġstory": 2331,
      "roll": 2332,
      "raft": 2333,
      "rt": 2334,
      "Ġdoc": 2335,
      "ales": 2336,
      "Ġclos": 2337,
      "Ġbenef": 2338,
      "Ġmakes": 2339,
      "oph": 2340,
      "cer": 2341,
      "ĠMed": 2342,
      "Ġskills": 2343,
      "Ġbook": 2344,
      "py": 2345,
      "rem": 2346,
      "ended": 2347,
      "iten": 2348,
      "atives": 2349,
      "Ġlater": 2350,
      "Ġmar": 2351,
      "________": 2352,
      "dir": 2353,
      "Ġwhether": 2354,
      "comes": 2355,
      "Ġjour": 2356,
      "Ġtot": 2357,
      "ĠBl": 2358,
      "Ġchanges": 2359,
      "Ġwie": 2360,
      "oot": 2361,
      "Ġlarg": 2362,
      "Ġrequired": 2363,
      "icy": 2364,
      "Ġos": 2365,
      "ued": 2366,
      "Ġissues": 2367,
      "Ġpercent": 2368,
      "23": 2369,
      "Ġevent": 2370,
      "ele": 2371,
      "new": 2372,
      "Ġneeds": 2373,
      "II": 2374,
      "Ġsugg": 2375,
      "ably": 2376,
      "ops": 2377,
      "isch": 2378,
      "Now": 2379,
      "Ġdom": 2380,
      "ftware": 2381,
      "}{": 2382,
      "Ġve": 2383,
      "80": 2384,
      "99": 2385,
      "Ġcollect": 2386,
      "vert": 2387,
      "Ġste": 2388,
      "Ġpoints": 2389,
      "^{": 2390,
      "ification": 2391,
      "Ġnur": 2392,
      "Ġmass": 2393,
      "Ġtowards": 2394,
      "Ġsure": 2395,
      "Ġyoung": 2396,
      "AS": 2397,
      "Ġtemper": 2398,
      "Ġside": 2399,
      "Ġdiv": 2400,
      "Ġgovernment": 2401,
      "order": 2402,
      "How": 2403,
      "ird": 2404,
      "Ġknowledge": 2405,
      "Ġopportun": 2406,
      "ĠCal": 2407,
      "Ġmaintain": 2408,
      "isc": 2409,
      "Ġtechnology": 2410,
      "Ġlevels": 2411,
      "Ġprim": 2412,
      "ĠMan": 2413,
      "Ġraise": 2414,
      "Ġthroughout": 2415,
      "Ġlik": 2416,
      "arr": 2417,
      "Ġmodern": 2418,
      "Ġanswer": 2419,
      "Ġremain": 2420,
      "Ġeither": 2421,
      "action": 2422,
      "ĠUS": 2423,
      "ival": 2424,
      "Ġsqu": 2425,
      "Ġinput": 2426,
      "Ġport": 2427,
      "ero": 2428,
      "rand": 2429,
      "une": 2430,
      "64": 2431,
      "ĠSome": 2432,
      "though": 2433,
      "################": 2434,
      "come": 2435,
      "zt": 2436,
      "Ġcoll": 2437,
      "rix": 2438,
      "aries": 2439,
      "Ġcy": 2440,
      "fort": 2441,
      "amb": 2442,
      "Ġprevent": 2443,
      "Ġmethods": 2444,
      "Ġsingle": 2445,
      "Ġdisease": 2446,
      "Ġfull": 2447,
      "Ġrate": 2448,
      "========": 2449,
      "ounds": 2450,
      "ĠĠĠĠĠĠĠĠĠ": 2451,
      ");": 2452,
      "Ġaccount": 2453,
      "Ġdescrib": 2454,
      "Ġuns": 2455,
      "Ġgrowth": 2456,
      "Ġang": 2457,
      "Ġeinen": 2458,
      "__(": 2459,
      "Ġfurther": 2460,
      "Ġgoing": 2461,
      "Ġcho": 2462,
      "resp": 2463,
      "Ġut": 2464,
      "Ġcause": 2465,
      "Ġenough": 2466,
      "Ġbig": 2467,
      "Ġmen": 2468,
      "Ġeiner": 2469,
      "Ġmajor": 2470,
      "Ġpast": 2471,
      "ift": 2472,
      "ribution": 2473,
      "Ġpractice": 2474,
      "\".": 2475,
      "Ġsomeone": 2476,
      "Ġindust": 2477,
      "Ġliter": 2478,
      "Ġestab": 2479,
      "Ġabs": 2480,
      "ache": 2481,
      "ĠFalse": 2482,
      "len": 2483,
      "Ġage": 2484,
      "append": 2485,
      "hemat": 2486,
      "bar": 2487,
      "Ġappear": 2488,
      "Ġrequire": 2489,
      "Ġconcern": 2490,
      "Ġfig": 2491,
      "ĠĠĠĠĠĠĠĠĠĠĠĠĠĠĠĠĠĠĠĠĠĠĠ": 2492,
      "Ġblood": 2493,
      "Ġmach": 2494,
      "Ġrespect": 2495,
      "tep": 2496,
      "Ġelements": 2497,
      "Ġinstead": 2498,
      "Ġsource": 2499,
      "\"]": 2500,
      "oney": 2501,
      "Ġ{'": 2502,
      "imum": 2503,
      "Ġnear": 2504,
      "sequ": 2505,
      "ĠAm": 2506,
      "Ġzum": 2507,
      "ĠUnited": 2508,
      "Ġeffort": 2509,
      "ee": 2510,
      "Ġhtt": 2511,
      "Ġheart": 2512,
      "Ġprin": 2513,
      "icense": 2514,
      "son": 2515,
      "****": 2516,
      "Ġeducation": 2517,
      "Ġintegr": 2518,
      "ening": 2519,
      "Field": 2520,
      "Ġgroups": 2521,
      "Ġlay": 2522,
      "ending": 2523,
      "Ġsens": 2524,
      "fs": 2525,
      "chie": 2526,
      "Ġrecord": 2527,
      "fully": 2528,
      "Ġcountry": 2529,
      "ĠLet": 2530,
      "Ġaspect": 2531,
      "ficult": 2532,
      "ĠFe": 2533,
      "cript": 2534,
      "anced": 2535,
      "Ġconsum": 2536,
      "hal": 2537,
      "Ġarr": 2538,
      "Ġaway": 2539,
      "Ġhy": 2540,
      "Ġtrue": 2541,
      "orks": 2542,
      "ĠReg": 2543,
      "Ġdays": 2544,
      "elling": 2545,
      "off": 2546,
      "ags": 2547,
      "Ġ25": 2548,
      "eder": 2549,
      "word": 2550,
      "ĠkÃ¶n": 2551,
      "ĠCont": 2552,
      "Ġey": 2553,
      "uments": 2554,
      "Ġrecogn": 2555,
      "iverse": 2556,
      "ustom": 2557,
      "Ġfactors": 2558,
      "ude": 2559,
      "ĠSc": 2560,
      "iction": 2561,
      "ET": 2562,
      "aves": 2563,
      "rams": 2564,
      "head": 2565,
      "Ġtarget": 2566,
      "Ġonline": 2567,
      "arl": 2568,
      "itle": 2569,
      "ĠDes": 2570,
      "ising": 2571,
      "Ġcells": 2572,
      "num": 2573,
      "Ġshare": 2574,
      "ĠIntern": 2575,
      "Ġuser": 2576,
      "Ġbelow": 2577,
      "27": 2578,
      "col": 2579,
      "Ġsym": 2580,
      "Ġemploy": 2581,
      "ische": 2582,
      "ohn": 2583,
      "Ġgraph": 2584,
      "ready": 2585,
      "ĠAf": 2586,
      "uation": 2587,
      "aff": 2588,
      "Ġresponse": 2589,
      "Ġvir": 2590,
      "Ġfrequ": 2591,
      "Ġplant": 2592,
      "oes": 2593,
      "lex": 2594,
      "Ġchallenges": 2595,
      "Ġpie": 2596,
      "Ġregard": 2597,
      "istance": 2598,
      "Ġfriends": 2599,
      "Ġdeg": 2600,
      "Ġpersonal": 2601,
      "cht": 2602,
      "Ġvol": 2603,
      "Ġcompon": 2604,
      "ster": 2605,
      "Ġ...": 2606,
      "cial": 2607,
      "ips": 2608,
      "illed": 2609,
      "idd": 2610,
      "left": 2611,
      "med": 2612,
      "Ġauthor": 2613,
      "Ġassociated": 2614,
      "29": 2615,
      "ĠâĪ": 2616,
      "45": 2617,
      "sub": 2618,
      "Ġensure": 2619,
      "ĠCent": 2620,
      "Ġpur": 2621,
      "Ġdeep": 2622,
      "atory": 2623,
      "Ġversion": 2624,
      "Ġnoch": 2625,
      "ĠEurope": 2626,
      "Ġzur": 2627,
      "Ġterms": 2628,
      "ruction": 2629,
      "Ġground": 2630,
      "Ġfr": 2631,
      "Ġtotal": 2632,
      "ĠSu": 2633,
      "Com": 2634,
      "aim": 2635,
      "Ġcover": 2636,
      "Ġfund": 2637,
      "So": 2638,
      "Ġspecies": 2639,
      "ĠGod": 2640,
      "Ġhelps": 2641,
      "htt": 2642,
      "Ġeinem": 2643,
      "Ġpay": 2644,
      "âĢ¦": 2645,
      "ango": 2646,
      "ula": 2647,
      "Ġhigher": 2648,
      "21": 2649,
      "alls": 2650,
      "oose": 2651,
      "ym": 2652,
      "Ġnature": 2653,
      "fun": 2654,
      "Ġanalysis": 2655,
      "Ġdifficult": 2656,
      "Ġhal": 2657,
      "Ġlength": 2658,
      "object": 2659,
      "There": 2660,
      "rict": 2661,
      "Ġtechniques": 2662,
      "ension": 2663,
      "Ġdurch": 2664,
      "rad": 2665,
      "False": 2666,
      ">>": 2667,
      "aken": 2668,
      "Ġleast": 2669,
      "olume": 2670,
      "Ġphysical": 2671,
      "ĠStates": 2672,
      "Ġparam": 2673,
      "Ġobserv": 2674,
      "aches": 2675,
      "utes": 2676,
      "dom": 2677,
      "Ġrather": 2678,
      "75": 2679,
      "atter": 2680,
      "Ġbreak": 2681,
      "ites": 2682,
      "Ġrelig": 2683,
      "Ġdat": 2684,
      "Ġcomes": 2685,
      "Ġcontinue": 2686,
      "Ġnever": 2687,
      "Ġtreatment": 2688,
      "ply": 2689,
      "anz": 2690,
      "Ġpositive": 2691,
      "Ġcorrect": 2692,
      "Ġdefault": 2693,
      "Ġemot": 2694,
      "0000": 2695,
      "Ġdiag": 2696,
      "Ġactivities": 2697,
      "chan": 2698,
      "Ġscience": 2699,
      "nov": 2700,
      "Ġintrodu": 2701,
      "Ġred": 2702,
      "Ġeveryone": 2703,
      "verage": 2704,
      "}\\": 2705,
      "Ġsolution": 2706,
      "Ġimplement": 2707,
      "Ġglobal": 2708,
      "'),": 2709,
      "ĠPol": 2710,
      "Ġur": 2711,
      "ounter": 2712,
      "Ġexperiences": 2713,
      "AC": 2714,
      "Ġachie": 2715,
      "Ġflow": 2716,
      "odes": 2717,
      "Ġreally": 2718,
      "ideo": 2719,
      "pecially": 2720,
      "Ġdepend": 2721,
      "Ġallows": 2722,
      "ief": 2723,
      "Ġsays": 2724,
      "Ġequal": 2725,
      "UT": 2726,
      "Ġeffic": 2727,
      "Ġforce": 2728,
      "Ġindic": 2729,
      "Ġanim": 2730,
      "ĠMay": 2731,
      "Ġapproach": 2732,
      "Ġsomet": 2733,
      "uild": 2734,
      "Ġdep": 2735,
      "gs": 2736,
      "Ġfamil": 2737,
      "Ġimage": 2738,
      "ĠCol": 2739,
      "comp": 2740,
      "Ġmaterials": 2741,
      "Ġparticip": 2742,
      "Ġusually": 2743,
      "Ġsett": 2744,
      "avor": 2745,
      "ai": 2746,
      "Ġbuilding": 2747,
      "ĠPre": 2748,
      "iation": 2749,
      "Ġcreated": 2750,
      "info": 2751,
      "Ġdraw": 2752,
      "Ġalready": 2753,
      "jango": 2754,
      "70": 2755,
      "version": 2756,
      "IS": 2757,
      "Ġword": 2758,
      "ores": 2759,
      "Ġalle": 2760,
      "Ġreason": 2761,
      "Ġkann": 2762,
      "Ġlower": 2763,
      "sych": 2764,
      "curity": 2765,
      "Ġselect": 2766,
      "Ġphot": 2767,
      "Ġaction": 2768,
      "Ġpub": 2769,
      "Ġevents": 2770,
      "ched": 2771,
      "Ġonce": 2772,
      "ception": 2773,
      "ging": 2774,
      "aten": 2775,
      "ump": 2776,
      "Ġoccur": 2777,
      "aling": 2778,
      "Ġincrease": 2779,
      "gor": 2780,
      "Ġgeneral": 2781,
      "Ġmultiple": 2782,
      "lichen": 2783,
      "Ġstories": 2784,
      "ĠMar": 2785,
      "Ġcommunities": 2786,
      "Ġnut": 2787,
      "Ġsometimes": 2788,
      "Ġgain": 2789,
      "Ġseem": 2790,
      "amm": 2791,
      "Ġsurface": 2792,
      "([": 2793,
      "Ġhaben": 2794,
      "ison": 2795,
      "Ġmom": 2796,
      "Ġbal": 2797,
      "uff": 2798,
      "28": 2799,
      "Ġtools": 2800,
      "Ġmeaning": 2801,
      "gl": 2802,
      "amed": 2803,
      "eters": 2804,
      "www": 2805,
      "ION": 2806,
      "Ġparts": 2807,
      "::": 2808,
      "].": 2809,
      "Ġneeded": 2810,
      "Ġthough": 2811,
      "ĠInt": 2812,
      "Ġsubject": 2813,
      "RO": 2814,
      "One": 2815,
      "Ġtable": 2816,
      "porary": 2817,
      "Ġtalk": 2818,
      ".)": 2819,
      "standing": 2820,
      "ĠInter": 2821,
      "Ġremember": 2822,
      "Ġcentury": 2823,
      "Ġfre": 2824,
      "ered": 2825,
      "Ġnp": 2826,
      "ĠAss": 2827,
      "Ġyet": 2828,
      "ured": 2829,
      "Ġwind": 2830,
      "most": 2831,
      "ĠMod": 2832,
      "ED": 2833,
      "Ġweight": 2834,
      "ĠArt": 2835,
      "ĠGener": 2836,
      "Ġ\\$": 2837,
      "mselves": 2838,
      "Ġmembers": 2839,
      "go": 2840,
      "ties": 2841,
      "Ġbecame": 2842,
      "Ġthemselves": 2843,
      "66": 2844,
      "35": 2845,
      "ĠPar": 2846,
      "uid": 2847,
      "Ġpopulation": 2848,
      "istics": 2849,
      "Ġnumer": 2850,
      "AM": 2851,
      "Ġhowever": 2852,
      "Ġloss": 2853,
      "Ġcritical": 2854,
      "Ġstring": 2855,
      "with": 2856,
      "Ġcru": 2857,
      "ĠSim": 2858,
      "ened": 2859,
      "Ġliving": 2860,
      "Ġmusic": 2861,
      "Ġmeet": 2862,
      "empt": 2863,
      "ĠPart": 2864,
      "Ġarch": 2865,
      "ĠShe": 2866,
      "Ġ50": 2867,
      "Ġaccording": 2868,
      "Ġespecially": 2869,
      "eds": 2870,
      "Ġcolor": 2871,
      "ulations": 2872,
      "reci": 2873,
      "ĠHer": 2874,
      "On": 2875,
      "ĠÂłĠÂł": 2876,
      "ĠNational": 2877,
      "'ll": 2878,
      "Die": 2879,
      "Ġprovides": 2880,
      "ager": 2881,
      "plit": 2882,
      "imately": 2883,
      "Ġcreating": 2884,
      "gorith": 2885,
      "dis": 2886,
      "Ġaber": 2887,
      "Ġcases": 2888,
      "Ġexact": 2889,
      "Ġnecessary": 2890,
      "Ġclear": 2891,
      "like": 2892,
      "Ġmodels": 2893,
      "Ġidea": 2894,
      "Ġpaper": 2895,
      "lin": 2896,
      "Ġquick": 2897,
      "ĠPer": 2898,
      "amples": 2899,
      "auf": 2900,
      "():": 2901,
      "Ġmehr": 2902,
      "resh": 2903,
      "Ġbring": 2904,
      "rage": 2905,
      "ĠAfric": 2906,
      "Ġcountries": 2907,
      "Ġlines": 2908,
      "ĠWar": 2909,
      "Ġpopular": 2910,
      "Ġcultural": 2911,
      "inating": 2912,
      "Ã©": 2913,
      "Ġencou": 2914,
      "Ġlives": 2915,
      "alle": 2916,
      "max": 2917,
      "Ġstandard": 2918,
      "iment": 2919,
      "ĠDr": 2920,
      "oman": 2921,
      "Ġtraditional": 2922,
      "Ġshap": 2923,
      "Ġwur": 2924,
      "Ġposition": 2925,
      "ĠNot": 2926,
      "You": 2927,
      "Ġanaly": 2928,
      "count": 2929,
      "Ġdest": 2930,
      "Ġpressure": 2931,
      "joy": 2932,
      "Ġlink": 2933,
      "Ġdone": 2934,
      "ĠTra": 2935,
      "Ġcontent": 2936,
      "Ġshape": 2937,
      "Ġexplain": 2938,
      "size": 2939,
      "iddle": 2940,
      "ivate": 2941,
      "ĠZe": 2942,
      "26": 2943,
      "Ġbase": 2944,
      "light": 2945,
      "point": 2946,
      "Ġtell": 2947,
      "erson": 2948,
      "Ġemerg": 2949,
      "Ġfunctions": 2950,
      "Ġengine": 2951,
      "Ġsat": 2952,
      "fÃ¼": 2953,
      "ĠUnder": 2954,
      "Test": 2955,
      "ike": 2956,
      "ĠRet": 2957,
      "way": 2958,
      "Cl": 2959,
      "Ġharm": 2960,
      "Ġfail": 2961,
      "rig": 2962,
      "Ġquality": 2963,
      "Ġpractices": 2964,
      "ference": 2965,
      "Ġextra": 2966,
      "Ġsubst": 2967,
      "print": 2968,
      "user": 2969,
      "hand": 2970,
      "Ġrights": 2971,
      "Ġsepar": 2972,
      "Ġbrain": 2973,
      "Ġchem": 2974,
      "code": 2975,
      "ried": 2976,
      "ming": 2977,
      "Ġactually": 2978,
      "onstr": 2979,
      "conn": 2980,
      "enge": 2981,
      "Ġoriginal": 2982,
      "Ġlikely": 2983,
      "Ġarray": 2984,
      "Ġsun": 2985,
      "Ġhol": 2986,
      "By": 2987,
      "Ad": 2988,
      "Ġih": 2989,
      "Ġ--": 2990,
      "ynam": 2991,
      "''": 2992,
      "lease": 2993,
      "Ġappreci": 2994,
      "AP": 2995,
      "Ġmanagement": 2996,
      "Ġwhole": 2997,
      "Ġsuggest": 2998,
      "Ġcut": 2999,
      "Ġincreasing": 3000,
      "run": 3001,
      "orpor": 3002,
      "Ġcity": 3003,
      "itor": 3004,
      "55": 3005,
      "Ġprinci": 3006,
      "ĠLicense": 3007,
      "pite": 3008,
      "Ġseen": 3009,
      "param": 3010,
      "Ġplants": 3011,
      "Ġsense": 3012,
      "Ġculture": 3013,
      "ĠNo": 3014,
      "ieren": 3015,
      "tic": 3016,
      "alue": 3017,
      "ĠThrough": 3018,
      "Ġsociety": 3019,
      "Ġassum": 3020,
      "ĠWhile": 3021,
      "Ġmath": 3022,
      "Ġcannot": 3023,
      "uck": 3024,
      "Ġanc": 3025,
      "ĠWorld": 3026,
      "Ġeffects": 3027,
      "Ġhistorical": 3028,
      "Ġdoesn": 3029,
      "Un": 3030,
      "Ġsent": 3031,
      "sten": 3032,
      "Ġ24": 3033,
      "format": 3034,
      "Ġprovided": 3035,
      "ae": 3036,
      "mon": 3037,
      "Ġfram": 3038,
      "Ġentire": 3039,
      "Ġprevious": 3040,
      "When": 3041,
      "ĠMore": 3042,
      "Ġforms": 3043,
      "module": 3044,
      "Section": 3045,
      "Ġlo": 3046,
      "De": 3047,
      "),(": 3048,
      "Ã¤nd": 3049,
      "Ġlen": 3050,
      "mat": 3051,
      "co": 3052,
      "Ġunter": 3053,
      "Ġmarket": 3054,
      "fect": 3055,
      "pri": 3056,
      "36": 3057,
      "Ġnormal": 3058,
      "ĠĠĠĠĠĠĠĠĠĠĠĠĠĠĠĠĠĠĠĠĠĠĠĠ": 3059,
      "But": 3060,
      "Ġbir": 3061,
      "Ġrelated": 3062,
      "Ġproducts": 3063,
      "Ġmodule": 3064,
      "Ġ->": 3065,
      "Ġstudies": 3066,
      "ivil": 3067,
      "Ġsaf": 3068,
      "Ġwrite": 3069,
      "lim": 3070,
      "Ġoptions": 3071,
      "ĠAfter": 3072,
      "Ġevidence": 3073,
      "Ġbis": 3074,
      "Ġbehavior": 3075,
      "tes": 3076,
      "astic": 3077,
      "Ġteam": 3078,
      "Ġerror": 3079,
      "Ġexerc": 3080,
      "Ġ+=": 3081,
      "ĠâĢŀ": 3082,
      "sing": 3083,
      "uable": 3084,
      "ĠBrit": 3085,
      "Ġpack": 3086,
      "88": 3087,
      "ĠEarth": 3088,
      "uel": 3089,
      "Ġfost": 3090,
      "Ġlove": 3091,
      "default": 3092,
      "Ġequation": 3093,
      "Ġexploring": 3094,
      "ellen": 3095,
      "Ġenh": 3096,
      "Ġinsp": 3097,
      "acks": 3098,
      "iol": 3099,
      "Ġther": 3100,
      "Ġreflect": 3101,
      "reen": 3102,
      "fields": 3103,
      "--------------------------------": 3104,
      "Ġjob": 3105,
      "Ġmoney": 3106,
      "Ġcapt": 3107,
      "Ġconsist": 3108,
      "aged": 3109,
      "gt": 3110,
      "Ġstructure": 3111,
      "Ġcontribut": 3112,
      "ults": 3113,
      "enden": 3114,
      "Ġlive": 3115,
      "Ġhouse": 3116,
      "Ġpage": 3117,
      "Ġaim": 3118,
      "Be": 3119,
      "Ġyourself": 3120,
      "ĠkÃ¶nnen": 3121,
      "Ġbit": 3122,
      "'}": 3123,
      "df": 3124,
      "ĠGerm": 3125,
      "Ġenjoy": 3126,
      "Ġsequ": 3127,
      "liche": 3128,
      "Ġwid": 3129,
      "aving": 3130,
      "Ġitself": 3131,
      "Ġsymb": 3132,
      "Ġtaking": 3133,
      "34": 3134,
      "Ġago": 3135,
      "Ġidentify": 3136,
      "bit": 3137,
      "90": 3138,
      "Ġeval": 3139,
      "Ġrev": 3140,
      "ĠEnglish": 3141,
      "mark": 3142,
      "Ġinnov": 3143,
      "des": 3144,
      "ĠCons": 3145,
      "Ġshows": 3146,
      "Ġdoing": 3147,
      "Ġopp": 3148,
      "Ġobjects": 3149,
      "Ġstress": 3150,
      "Ġpolitical": 3151,
      "Ġï": 3152,
      "Ġdeath": 3153,
      "Ġcondition": 3154,
      "oved": 3155,
      "Ġ!": 3156,
      "Ġguid": 3157,
      "Ġ[]": 3158,
      "wargs": 3159,
      "Ġdemonstr": 3160,
      "where": 3161,
      "emporary": 3162,
      "Ġregular": 3163,
      "Ġsafe": 3164,
      "mt": 3165,
      "Ġcame": 3166,
      "osp": 3167,
      "Ġactivity": 3168,
      "Ġcustom": 3169,
      "Ġpredict": 3170,
      "Ġanimals": 3171,
      "Ġmillion": 3172,
      "aily": 3173,
      "ĠAus": 3174,
      "Ġetc": 3175,
      "Se": 3176,
      "Ġstudent": 3177,
      "models": 3178,
      "ieder": 3179,
      "ypes": 3180,
      "oon": 3181,
      "ĠAN": 3182,
      "Ġmove": 3183,
      "Ã¼ck": 3184,
      "Ġsurround": 3185,
      "avig": 3186,
      "AB": 3187,
      "ĠMin": 3188,
      "isions": 3189,
      "Step": 3190,
      "Ġgreater": 3191,
      "ground": 3192,
      "Ġservices": 3193,
      "Ġperformance": 3194,
      "ese": 3195,
      "pper": 3196,
      "state": 3197,
      "oat": 3198,
      "aced": 3199,
      "UR": 3200,
      "Ġvaluable": 3201,
      "ĠSci": 3202,
      "Ġlot": 3203,
      "Ġproduction": 3204,
      "Ġdeb": 3205,
      "Ġincreased": 3206,
      "inally": 3207,
      "Ġbeaut": 3208,
      "Ġreading": 3209,
      "Ġstates": 3210,
      "ixed": 3211,
      "pid": 3212,
      "37": 3213,
      "da": 3214,
      "Ġprogress": 3215,
      "</": 3216,
      "Ġoption": 3217,
      "array": 3218,
      "Ġhours": 3219,
      "Ġhttp": 3220,
      "Ġones": 3221,
      "Ġcopy": 3222,
      "Ġmedical": 3223,
      "Ġmor": 3224,
      "Ġmatter": 3225,
      "Ġintern": 3226,
      "ĠHist": 3227,
      "100": 3228,
      "ename": 3229,
      "based": 3230,
      "Ġbar": 3231,
      "ĠTest": 3232,
      "Ġaccur": 3233,
      "pression": 3234,
      "Ġreduce": 3235,
      "Ġexpected": 3236,
      "Ġwa": 3237,
      "Ġmedia": 3238,
      "Ġconstant": 3239,
      "DE": 3240,
      "Ġda": 3241,
      "Ġeffective": 3242,
      "Ġresearchers": 3243,
      "Ġcompet": 3244,
      "Ġhold": 3245,
      "Ġwriting": 3246,
      "ĠAut": 3247,
      "Ġgame": 3248,
      "Ġpri": 3249,
      "gram": 3250,
      "mitt": 3251,
      "ptoms": 3252,
      "Ġfasc": 3253,
      "yond": 3254,
      "return": 3255,
      "Ġtheory": 3256,
      "Ġload": 3257,
      "Ġelement": 3258,
      "Ġcomputer": 3259,
      "Ġenvironmental": 3260,
      "Ġhalf": 3261,
      "Ġseries": 3262,
      "Ġuses": 3263,
      "Ġcancer": 3264,
      "Ġ$\\": 3265,
      "Ġaltern": 3266,
      "Ġwritten": 3267,
      "leep": 3268,
      "wise": 3269,
      "ners": 3270,
      "Ġstrategies": 3271,
      "Ġtransform": 3272,
      "Ġinteract": 3273,
      "Ġtemperature": 3274,
      "Ġnetwork": 3275,
      "ðĿ": 3276,
      "pose": 3277,
      "ilit": 3278,
      "ĠYour": 3279,
      "itch": 3280,
      "Ġtaken": 3281,
      "Ġtravel": 3282,
      "Ġrequest": 3283,
      "mit": 3284,
      "bre": 3285,
      "Ġhost": 3286,
      "Ġcrucial": 3287,
      "Ġpatterns": 3288,
      "Ġsimply": 3289,
      "ĠJahr": 3290,
      "Res": 3291,
      "Ġservice": 3292,
      "instance": 3293,
      "List": 3294,
      "Ġfields": 3295,
      "ĠAct": 3296,
      "44": 3297,
      "call": 3298,
      "Ġtakes": 3299,
      "lement": 3300,
      "Ġihr": 3301,
      "Ġquant": 3302,
      "book": 3303,
      "chaft": 3304,
      "ios": 3305,
      "Ġbound": 3306,
      "ende": 3307,
      "Ġeasy": 3308,
      "Ġbasic": 3309,
      "Ġclose": 3310,
      "ĠSoc": 3311,
      "Ġability": 3312,
      "config": 3313,
      "Ġann": 3314,
      "ters": 3315,
      "Ġaverage": 3316,
      "Ġclimate": 3317,
      "Ã¤r": 3318,
      "Ġbehind": 3319,
      "Ġinside": 3320,
      "verse": 3321,
      "atform": 3322,
      "aly": 3323,
      "ached": 3324,
      "start": 3325,
      "Ġadapt": 3326,
      "ING": 3327,
      "Ġfive": 3328,
      "stain": 3329,
      "anks": 3330,
      "Ġavoid": 3331,
      "Ġpict": 3332,
      "http": 3333,
      "iff": 3334,
      "Ġleading": 3335,
      "eding": 3336,
      "Ġrand": 3337,
      "CH": 3338,
      "Ġstarted": 3339,
      "38": 3340,
      "Ġcommunication": 3341,
      "Ġmechan": 3342,
      "Ġregion": 3343,
      "Ġelif": 3344,
      "Ġlands": 3345,
      "loc": 3346,
      "Ġroot": 3347,
      "ibrary": 3348,
      "Ġdifference": 3349,
      "Ġsoftware": 3350,
      "etic": 3351,
      "ĠEin": 3352,
      "hood": 3353,
      "Ġheat": 3354,
      "izations": 3355,
      "Ġopportunities": 3356,
      "CT": 3357,
      "Ġspir": 3358,
      "ĠMon": 3359,
      "78": 3360,
      "ĠDer": 3361,
      "ibt": 3362,
      "Ġdoct": 3363,
      "Ġla": 3364,
      "Ġdiverse": 3365,
      "Ġweek": 3366,
      "Ġoverall": 3367,
      "Ġdire": 3368,
      "ĠChapter": 3369,
      "Ġbegan": 3370,
      ".__": 3371,
      "Ġir": 3372,
      "Ġsite": 3373,
      "vant": 3374,
      "just": 3375,
      "encies": 3376,
      "Ġdistance": 3377,
      "Ġpatients": 3378,
      "Ġindepend": 3379,
      "join": 3380,
      "Ġsustain": 3381,
      "Ġfol": 3382,
      "Ġq": 3383,
      "Ġnational": 3384,
      "Ġaccept": 3385,
      "Ġlimit": 3386,
      "oday": 3387,
      "Ã¶r": 3388,
      "ged": 3389,
      "osed": 3390,
      "ologies": 3391,
      "Ġ2012": 3392,
      "Ġattention": 3393,
      "field": 3394,
      "edi": 3395,
      "atus": 3396,
      "Ġfeatures": 3397,
      "Ġpolicy": 3398,
      "Ġstop": 3399,
      "bon": 3400,
      "hib": 3401,
      "ĠDas": 3402,
      "Ġ40": 3403,
      "Ġmathemat": 3404,
      "Ġimprove": 3405,
      "Ġdesigned": 3406,
      "Ġface": 3407,
      "oper": 3408,
      "39": 3409,
      "Ġdocument": 3410,
      "cks": 3411,
      "ĠEm": 3412,
      "yl": 3413,
      "Ġjourney": 3414,
      "ĠRem": 3415,
      "Ġwonder": 3416,
      "Ġtook": 3417,
      "string": 3418,
      "write": 3419,
      "Ġbenefits": 3420,
      "Ġclean": 3421,
      "Ġchapter": 3422,
      "Ġhom": 3423,
      "Ġconfig": 3424,
      "apy": 3425,
      "keit": 3426,
      ":**": 3427,
      "Ġsection": 3428,
      "ĠPe": 3429,
      "uit": 3430,
      "ĠSystem": 3431,
      "ius": 3432,
      "Ġdistribution": 3433,
      "Ġappl": 3434,
      "vey": 3435,
      "Ġmicro": 3436,
      "Ġideas": 3437,
      "uge": 3438,
      "Ġvisual": 3439,
      "Ġrandom": 3440,
      "Ġconsidered": 3441,
      "Ġfall": 3442,
      "Ġbeyond": 3443,
      "Ġthinking": 3444,
      "Ġconduct": 3445,
      "Ġeverything": 3446,
      "Let": 3447,
      "Ġtraining": 3448,
      "Ġexpos": 3449,
      "enced": 3450,
      "roduction": 3451,
      "more": 3452,
      "Ġcolum": 3453,
      "79": 3454,
      "index": 3455,
      "Ġparticularly": 3456,
      "Ġcross": 3457,
      "Ġsources": 3458,
      "ony": 3459,
      "Ġinitial": 3460,
      "Ġcompany": 3461,
      "Ġperspect": 3462,
      "Ġprofess": 3463,
      "host": 3464,
      "anning": 3465,
      "Ġthing": 3466,
      "ĠAust": 3467,
      "())": 3468,
      "Ġaud": 3469,
      "}$": 3470,
      "apan": 3471,
      "Ġindex": 3472,
      "Ġdiet": 3473,
      "Ġshown": 3474,
      "Ġeconomic": 3475,
      "arily": 3476,
      "raction": 3477,
      "ober": 3478,
      "ometry": 3479,
      "Ġoffic": 3480,
      "OT": 3481,
      "Ġbooks": 3482,
      "thern": 3483,
      "Ġprec": 3484,
      "rast": 3485,
      "ta": 3486,
      "Ġemp": 3487,
      "Ġdou": 3488,
      "Ġvariable": 3489,
      "Ġhealthy": 3490,
      "((": 3491,
      "ĠNow": 3492,
      "Ġsound": 3493,
      "Ġalgorith": 3494,
      "Ġmessage": 3495,
      "attr": 3496,
      "cles": 3497,
      "Ġinform": 3498,
      "Ġdeveloped": 3499,
      "Ġsteps": 3500,
      "ided": 3501,
      "ĠNum": 3502,
      "Ġpsych": 3503,
      "const": 3504,
      "Ġsearch": 3505,
      "Ġarticle": 3506,
      "Ġassess": 3507,
      "Ġproduce": 3508,
      "rim": 3509,
      "Ġsex": 3510,
      "Ġnegative": 3511,
      "Ġrecomm": 3512,
      "adem": 3513,
      "Ġsoll": 3514,
      "Ġappropri": 3515,
      "group": 3516,
      "Ġclaim": 3517,
      "ography": 3518,
      "48": 3519,
      "Type": 3520,
      "oor": 3521,
      "fol": 3522,
      "Ġdim": 3523,
      "Ġrequires": 3524,
      "ancial": 3525,
      "Ġeth": 3526,
      "atz": 3527,
      "Ġrep": 3528,
      "ĠHealth": 3529,
      "Ġimportance": 3530,
      "ĠAmerica": 3531,
      "itution": 3532,
      "Ġreach": 3533,
      "Ġcomplete": 3534,
      "uous": 3535,
      "kl": 3536,
      "Ġwhite": 3537,
      "itude": 3538,
      "Ġaspects": 3539,
      "Ġcook": 3540,
      "Ġrules": 3541,
      "ĠJohn": 3542,
      "Ġbroad": 3543,
      "ĠJust": 3544,
      "Ġspeed": 3545,
      "Ġrelationships": 3546,
      "Ġlooking": 3547,
      "Ġsix": 3548,
      "ĠAcc": 3549,
      "ĠMus": 3550,
      "inate": 3551,
      "oding": 3552,
      "Ġheav": 3553,
      "Ġsymptoms": 3554,
      "Ġmatrix": 3555,
      "ĠResearch": 3556,
      "Ġnode": 3557,
      "Ġinvolved": 3558,
      "ĠTrans": 3559,
      "Ġbecomes": 3560,
      "Ġpublished": 3561,
      "acters": 3562,
      "pi": 3563,
      "Ġax": 3564,
      "uth": 3565,
      "gebra": 3566,
      "Ġpromot": 3567,
      "mission": 3568,
      "Ġblock": 3569,
      "Ã¼n": 3570,
      "Ġisn": 3571,
      "agen": 3572,
      "Ġblack": 3573,
      "Ġdetermine": 3574,
      "ĠDis": 3575,
      "Ġinstall": 3576,
      "Ġhier": 3577,
      "Ġdigital": 3578,
      "ĠTechn": 3579,
      "Ġcool": 3580,
      "IL": 3581,
      "Ġstay": 3582,
      "wo": 3583,
      "Ġmonths": 3584,
      "Ġseek": 3585,
      "hens": 3586,
      "Ġefforts": 3587,
      "lege": 3588,
      "ls": 3589,
      "Ġtree": 3590,
      "angle": 3591,
      "Ġled": 3592,
      "coming": 3593,
      "Ġprograms": 3594,
      "icles": 3595,
      "ĠPres": 3596,
      "ĠSol": 3597,
      "Ġbuilt": 3598,
      "ĠAug": 3599,
      "ĠGl": 3600,
      "HE": 3601,
      "Ġkom": 3602,
      "Ġobtain": 3603,
      "Ġinternational": 3604,
      "Ġstru": 3605,
      "Ġcollabor": 3606,
      "Ġ2013": 3607,
      "ĠNorth": 3608,
      "inks": 3609,
      "Ġoutside": 3610,
      "Ġcomponents": 3611,
      "65": 3612,
      "Ġrow": 3613,
      "dr": 3614,
      "Ġnamed": 3615,
      "xy": 3616,
      "Ġspread": 3617,
      "Ġdecision": 3618,
      "Ġadded": 3619,
      "Ġbra": 3620,
      "Ġmental": 3621,
      "irm": 3622,
      "duc": 3623,
      "uration": 3624,
      "Ġincorpor": 3625,
      "Ġ{}": 3626,
      "Ġmedic": 3627,
      "IV": 3628,
      "Mod": 3629,
      "ley": 3630,
      "urg": 3631,
      "iger": 3632,
      "Ġdefin": 3633,
      "Ġnames": 3634,
      "ĠFrom": 3635,
      "Ġdaily": 3636,
      "inct": 3637,
      "Ġsort": 3638,
      "ĠCo": 3639,
      "Ġsolutions": 3640,
      "ected": 3641,
      "ĠGo": 3642,
      "Ġgreen": 3643,
      "Ġfriend": 3644,
      "Ġgas": 3645,
      "Ġcateg": 3646,
      "'ve": 3647,
      "create": 3648,
      "ĠWell": 3649,
      "Ġconnection": 3650,
      "'],": 3651,
      "ĠHis": 3652,
      "zz": 3653,
      "Ġparents": 3654,
      "know": 3655,
      "cos": 3656,
      "issions": 3657,
      "Ġapplications": 3658,
      "rong": 3659,
      "Ġexactly": 3660,
      "Ġid": 3661,
      "Ġprocesses": 3662,
      "49": 3663,
      "ervation": 3664,
      "rown": 3665,
      "Ġhor": 3666,
      "izes": 3667,
      "Ġ['": 3668,
      "Ġsafety": 3669,
      "Ġfascinating": 3670,
      "rÃ¤": 3671,
      "ystem": 3672,
      "Ġdynam": 3673,
      "Ġinvolves": 3674,
      "que": 3675,
      "Ġrecent": 3676,
      "And": 3677,
      "oud": 3678,
      "ĠBer": 3679,
      "Ġvideo": 3680,
      "uk": 3681,
      "Ġexpect": 3682,
      "Ġtas": 3683,
      "Ġreview": 3684,
      "Ġinterpre": 3685,
      "iar": 3686,
      "ĠMat": 3687,
      "python": 3688,
      "cape": 3689,
      "AD": 3690,
      "Ġ21": 3691,
      "ĠJan": 3692,
      "find": 3693,
      "ĠComp": 3694,
      "ĠSee": 3695,
      "Ġmatch": 3696,
      "eld": 3697,
      "Ġskin": 3698,
      "Ġfast": 3699,
      "Ġestim": 3700,
      "Ġexamples": 3701,
      "Ġsquare": 3702,
      "Ġ2010": 3703,
      "no": 3704,
      "05": 3705,
      "ilos": 3706,
      "Ġhumans": 3707,
      "Ġproperty": 3708,
      "CO": 3709,
      "Ġdru": 3710,
      "utz": 3711,
      "ĠAg": 3712,
      "ĠChe": 3713,
      "````": 3714,
      "Ġpowerful": 3715,
      "iring": 3716,
      "(),": 3717,
      "Ġgot": 3718,
      "Ã¶g": 3719,
      "Ġtrying": 3720,
      "Ġperfect": 3721,
      "ĠSouth": 3722,
      "Ġtool": 3723,
      "xx": 3724,
      "Ġshared": 3725,
      "fficient": 3726,
      "Ġlonger": 3727,
      "request": 3728,
      "Ġcompan": 3729,
      "Ġfactor": 3730,
      "Ġcompared": 3731,
      "Ġbott": 3732,
      "Ġsuff": 3733,
      "very": 3734,
      "ensity": 3735,
      "ĠGeneral": 3736,
      "ports": 3737,
      "Ġdistribut": 3738,
      "itation": 3739,
      "Ġprimary": 3740,
      "Ġadditional": 3741,
      "equ": 3742,
      "phas": 3743,
      "ament": 3744,
      "ĠUnderstanding": 3745,
      "osis": 3746,
      "Ġcommand": 3747,
      "ĠJapan": 3748,
      "Sh": 3749,
      "Ġuseful": 3750,
      "ĠMark": 3751,
      "amin": 3752,
      "Ã¤hr": 3753,
      "ĠÎ": 3754,
      "Ġsample": 3755,
      "Ġgetting": 3756,
      "ancing": 3757,
      "Ġ2011": 3758,
      "leg": 3759,
      "ĠDep": 3760,
      "Ġincludes": 3761,
      "ĠMit": 3762,
      "atively": 3763,
      "Ġtax": 3764,
      "node": 3765,
      "sq": 3766,
      "Ġalmost": 3767,
      "Ġdetails": 3768,
      "Ġhope": 3769,
      "rors": 3770,
      "estion": 3771,
      "Ġmovement": 3772,
      "itute": 3773,
      "ĠCar": 3774,
      "ifically": 3775,
      "ĠCO": 3776,
      "ahl": 3777,
      "Ġlearned": 3778,
      "Ġrule": 3779,
      "Ġsurv": 3780,
      "Ġfish": 3781,
      "Ġmoment": 3782,
      "Qu": 3783,
      "ĠOver": 3784,
      "ensive": 3785,
      "ĠCanad": 3786,
      "Ġcontact": 3787,
      "Ġvisit": 3788,
      "ĠAnt": 3789,
      "**:": 3790,
      "Ġmal": 3791,
      "inen": 3792,
      "empl": 3793,
      "ĠGr": 3794,
      "Ġcontains": 3795,
      "ube": 3796,
      "Ġwarm": 3797,
      "Ġoil": 3798,
      "ĠSte": 3799,
      "ĠThen": 3800,
      ".\"\"\"": 3801,
      "check": 3802,
      "Ã¤h": 3803,
      "Ġtests": 3804,
      "Ġinvestig": 3805,
      "Ġissue": 3806,
      "ĠUse": 3807,
      "Ġminutes": 3808,
      "Ġexec": 3809,
      "Ġelectric": 3810,
      "Ġbelieve": 3811,
      "Ġcontemporary": 3812,
      "estern": 3813,
      "Ġindustry": 3814,
      "Ġremains": 3815,
      "Ġproviding": 3816,
      "Ġcou": 3817,
      "ux": 3818,
      "ban": 3819,
      "Name": 3820,
      "ĠYork": 3821,
      "Ġprote": 3822,
      "Ġconcepts": 3823,
      "Ġwild": 3824,
      "ĠNov": 3825,
      "Ġconnections": 3826,
      "Ġoffers": 3827,
      "Ġitems": 3828,
      "Ġgrowing": 3829,
      "input": 3830,
      "ighb": 3831,
      "neh": 3832,
      "Ġfarm": 3833,
      "iency": 3834,
      "ENT": 3835,
      "Ġexpression": 3836,
      "Ġscientists": 3837,
      "ĠEach": 3838,
      "ogle": 3839,
      "ustr": 3840,
      "sche": 3841,
      "89": 3842,
      "Ġlab": 3843,
      "ĠMany": 3844,
      "Ġprinciples": 3845,
      "Ġwalk": 3846,
      "Ġwebs": 3847,
      "ĠMy": 3848,
      "abe": 3849,
      "Ġleaders": 3850,
      "Ġnavig": 3851,
      "Ġcapac": 3852,
      "77": 3853,
      "Ġvariables": 3854,
      "ĠCre": 3855,
      "Ġautom": 3856,
      "sum": 3857,
      "ĠIh": 3858,
      "Ġgro": 3859,
      "ĠFre": 3860,
      "Ġcharacters": 3861,
      "Ġfinal": 3862,
      "Ġconstruct": 3863,
      "'.": 3864,
      "Ġtim": 3865,
      "dit": 3866,
      "ulate": 3867,
      "Ġwurde": 3868,
      "Ġformula": 3869,
      "Ġaccom": 3870,
      "ref": 3871,
      "mar": 3872,
      "Ġvia": 3873,
      "Ġregarding": 3874,
      "Ġvalid": 3875,
      "Ġfavor": 3876,
      "heit": 3877,
      "isms": 3878,
      "bst": 3879,
      "ĠGu": 3880,
      "Ġattempt": 3881,
      "Ġball": 3882,
      "oration": 3883,
      "aren": 3884,
      "Ġlarger": 3885,
      "erve": 3886,
      "term": 3887,
      "ĠĊ": 3888,
      "care": 3889,
      "etime": 3890,
      "su": 3891,
      "illi": 3892,
      "html": 3893,
      "ĠForm": 3894,
      "Ġviol": 3895,
      "rought": 3896,
      "Ġdeveloping": 3897,
      "eper": 3898,
      "Ġdefined": 3899,
      "inder": 3900,
      "Ġprep": 3901,
      "Ġthreat": 3902,
      "Ġcontribute": 3903,
      "inn": 3904,
      "Ġapplication": 3905,
      "oice": 3906,
      "Ġlate": 3907,
      "Ġ[],": 3908,
      "mal": 3909,
      "odies": 3910,
      "ĠIN": 3911,
      "Ġdevice": 3912,
      "vention": 3913,
      "Ġful": 3914,
      "Ġidentity": 3915,
      "iber": 3916,
      "itable": 3917,
      "ensor": 3918,
      "elcome": 3919,
      "Ġchemical": 3920,
      "iful": 3921,
      "Ġfem": 3922,
      "Ġcoord": 3923,
      "Ġwenn": 3924,
      "Ġancient": 3925,
      "elebr": 3926,
      "amer": 3927,
      "Ġschools": 3928,
      "ĠKe": 3929,
      "ĠAddition": 3930,
      "Ġvolume": 3931,
      "cret": 3932,
      "itect": 3933,
      "Ġ!=": 3934,
      "UL": 3935,
      "Ġapprox": 3936,
      "Ġspirit": 3937,
      "pol": 3938,
      "phere": 3939,
      "Ġrich": 3940,
      "Ġquite": 3941,
      "beit": 3942,
      "ternal": 3943,
      "Ġagre": 3944,
      "Ġquickly": 3945,
      "hors": 3946,
      "Ar": 3947,
      "gn": 3948,
      "django": 3949,
      "Ġimages": 3950,
      "Ġinsights": 3951,
      "ĠSm": 3952,
      "ÃŁen": 3953,
      "Ġencourag": 3954,
      "trans": 3955,
      "Ġprice": 3956,
      "known": 3957,
      "Ġslow": 3958,
      "Ġapply": 3959,
      "error": 3960,
      "Ġearth": 3961,
      "Ġassign": 3962,
      "ambda": 3963,
      "IP": 3964,
      "Ġproperties": 3965,
      "ĠRed": 3966,
      "Ġdisplay": 3967,
      "Ġfru": 3968,
      "iles": 3969,
      "ĠScience": 3970,
      "TER": 3971,
      "unk": 3972,
      "Ġ60": 3973,
      "Ġfiles": 3974,
      "Ġfire": 3975,
      "Ġdog": 3976,
      "All": 3977,
      "Ġwhose": 3978,
      "IG": 3979,
      "ying": 3980,
      "Key": 3981,
      "Ġprefer": 3982,
      "Ġstructures": 3983,
      "Ġdecl": 3984,
      "Ġasked": 3985,
      "Ġdar": 3986,
      "67": 3987,
      "Ġlie": 3988,
      "ĠPublic": 3989,
      "31": 3990,
      "Ġfamilies": 3991,
      "ades": 3992,
      "ultural": 3993,
      "haps": 3994,
      "change": 3995,
      "eren": 3996,
      "Ġsn": 3997,
      "ÂłÂłÂł": 3998,
      "Ġfigure": 3999,
      "69": 4000,
      "Ġchoose": 4001,
      "Ġappropriate": 4002,
      "EM": 4003,
      "Ġimagine": 4004,
      "Is": 4005,
      "Ġrat": 4006,
      "Ġ2009": 4007,
      "rip": 4008,
      "kwargs": 4009,
      "Ġ]": 4010,
      "idge": 4011,
      "istry": 4012,
      "Ġdescription": 4013,
      "ĠPython": 4014,
      "Ġkids": 4015,
      "Ġfeet": 4016,
      "Ġsec": 4017,
      "Ġsolve": 4018,
      "Ġcat": 4019,
      "Ġfinancial": 4020,
      "gy": 4021,
      "ding": 4022,
      "Ġsleep": 4023,
      "Ġinfluence": 4024,
      "dat": 4025,
      "Ġplatform": 4026,
      "ronic": 4027,
      "Ġfair": 4028,
      "model": 4029,
      "IM": 4030,
      "oles": 4031,
      "ĠOb": 4032,
      "Ġscientific": 4033,
      "ett": 4034,
      "Ġnote": 4035,
      "Ġfit": 4036,
      "Ġreve": 4037,
      "Ġresource": 4038,
      "ĠEnt": 4039,
      "etz": 4040,
      "Ġtown": 4041,
      "context": 4042,
      "85": 4043,
      "Ġdiagn": 4044,
      "ĠIS": 4045,
      "AA": 4046,
      "Ġmer": 4047,
      "rm": 4048,
      "uen": 4049,
      "âĪ": 4050,
      "illing": 4051,
      "ocks": 4052,
      "unden": 4053,
      "Ġprior": 4054,
      "Int": 4055,
      "itz": 4056,
      "NA": 4057,
      "ĠAuf": 4058,
      "US": 4059,
      "]]": 4060,
      "Ġ22": 4061,
      "Cont": 4062,
      "At": 4063,
      "Ġfeed": 4064,
      "})": 4065,
      "Ġsoil": 4066,
      "Ġconflic": 4067,
      "ĠState": 4068,
      "Ġreligious": 4069,
      "Ġstrugg": 4070,
      "itary": 4071,
      "Ġeasily": 4072,
      "ections": 4073,
      "obj": 4074,
      "ĠDo": 4075,
      "ĠII": 4076,
      "anger": 4077,
      "cal": 4078,
      "Ġactive": 4079,
      "Ġdirectly": 4080,
      "osing": 4081,
      "gar": 4082,
      "pen": 4083,
      "assen": 4084,
      "Ġsecurity": 4085,
      "Ġitem": 4086,
      "Ġstatus": 4087,
      "Ġsuccessful": 4088,
      "Ġmemory": 4089,
      "eks": 4090,
      "Ġwieder": 4091,
      "Ġcit": 4092,
      "ensions": 4093,
      "ufact": 4094,
      "Ġcm": 4095,
      "iny": 4096,
      "Ġlif": 4097,
      "Ġplaces": 4098,
      "Ġdann": 4099,
      "ellow": 4100,
      "uations": 4101,
      "ĠRuss": 4102,
      "ĠSchool": 4103,
      "Ġurl": 4104,
      "ana": 4105,
      "Ġresponsible": 4106,
      "ĠFirst": 4107,
      "Ġdirection": 4108,
      "ĠBritish": 4109,
      "ĠBr": 4110,
      "Ġstra": 4111,
      "Ġbalance": 4112,
      "Ġsmaller": 4113,
      "Ġthous": 4114,
      "Ġsmo": 4115,
      "urt": 4116,
      "otal": 4117,
      "][": 4118,
      "Ġtrack": 4119,
      "Ġestablish": 4120,
      "Ġnarr": 4121,
      "abilities": 4122,
      "rial": 4123,
      "ĠJew": 4124,
      "Ġcivil": 4125,
      "Ġviel": 4126,
      "Ġmiss": 4127,
      "Ġrot": 4128,
      "Ġult": 4129,
      "Ġunits": 4130,
      "ĠPost": 4131,
      "params": 4132,
      "ĠTr": 4133,
      "Ġdate": 4134,
      "Ġmir": 4135,
      "Ġges": 4136,
      "04": 4137,
      "ias": 4138,
      "Ġvom": 4139,
      "},": 4140,
      "Ġfoot": 4141,
      "ĠHere": 4142,
      "hing": 4143,
      "works": 4144,
      "Ġcaused": 4145,
      "Get": 4146,
      "Ġpoll": 4147,
      "ilosoph": 4148,
      "Ġmill": 4149,
      "igt": 4150,
      "Ġnovel": 4151,
      "Ġcelebr": 4152,
      "ĠApr": 4153,
      "Ġdeeper": 4154,
      "length": 4155,
      "Ã¤ng": 4156,
      "68": 4157,
      "ously": 4158,
      "ĠSub": 4159,
      "airs": 4160,
      "Ġing": 4161,
      "Ġforces": 4162,
      "Ġtransport": 4163,
      "used": 4164,
      "Ġdiese": 4165,
      "Ġjed": 4166,
      "ĠUnit": 4167,
      "uries": 4168,
      "Ġemphas": 4169,
      "Ġcamp": 4170,
      "OS": 4171,
      "Ġgives": 4172,
      "Ġsys": 4173,
      "lete": 4174,
      "life": 4175,
      "Ġmention": 4176,
      "fahr": 4177,
      "Ġthird": 4178,
      "Ġpropos": 4179,
      "process": 4180,
      "lick": 4181,
      "Ġproced": 4182,
      "igr": 4183,
      "map": 4184,
      "Ġinj": 4185,
      "spec": 4186,
      "Ġ23": 4187,
      "Ġthus": 4188,
      "Ġdivid": 4189,
      "Ġchallenge": 4190,
      "Ġgut": 4191,
      "vest": 4192,
      "Ġdevices": 4193,
      "Ġverb": 4194,
      "ĠRel": 4195,
      "Ġdeliver": 4196,
      "Imagine": 4197,
      "Ġtask": 4198,
      "Ġformat": 4199,
      "ĠServ": 4200,
      "Ġsignificantly": 4201,
      "urns": 4202,
      "ete": 4203,
      "orage": 4204,
      "pack": 4205,
      "Ġdive": 4206,
      "Pl": 4207,
      "pring": 4208,
      "sl": 4209,
      "Ġlocation": 4210,
      "Ġcompre": 4211,
      "rc": 4212,
      "Ġmachine": 4213,
      "Ġefficient": 4214,
      "Ġusers": 4215,
      "Ġinteresting": 4216,
      "olic": 4217,
      "related": 4218,
      "Ġtrust": 4219,
      "Ġdict": 4220,
      "valid": 4221,
      "ĠCount": 4222,
      "eln": 4223,
      "Ġthr": 4224,
      "eta": 4225,
      "attle": 4226,
      "minist": 4227,
      "Ġseems": 4228,
      "AG": 4229,
      "ĠLear": 4230,
      "ourt": 4231,
      "Ġtransl": 4232,
      "ogen": 4233,
      "En": 4234,
      "cy": 4235,
      "Ġdidn": 4236,
      "Ġep": 4237,
      "wers": 4238,
      "Ġallowing": 4239,
      "Ġbox": 4240,
      "abet": 4241,
      "Ġrates": 4242,
      "method": 4243,
      "igenous": 4244,
      "ĠChristian": 4245,
      "chl": 4246,
      "Ġrob": 4247,
      "Ġcorresp": 4248,
      "Ġdecre": 4249,
      "lib": 4250,
      "esents": 4251,
      "Ġimmer": 4252,
      "Ġmess": 4253,
      "ĠOct": 4254,
      "ĠToday": 4255,
      "ĠAustral": 4256,
      "lands": 4257,
      "47": 4258,
      "ocol": 4259,
      "Ġeye": 4260,
      "Ġscale": 4261,
      "ĠProble": 4262,
      "Ġestablished": 4263,
      "Ġstrength": 4264,
      "osition": 4265,
      "icate": 4266,
      "Ġcenter": 4267,
      "oe": 4268,
      "onom": 4269,
      "ĠExpl": 4270,
      "Ġimmedi": 4271,
      "Box": 4272,
      "Ġded": 4273,
      "ĠOF": 4274,
      "Ġconver": 4275,
      "ĠFun": 4276,
      "59": 4277,
      "ailed": 4278,
      "ino": 4279,
      "ulture": 4280,
      "ĠGra": 4281,
      "Ġconvers": 4282,
      "Ġcauses": 4283,
      "Ġactions": 4284,
      "etzt": 4285,
      "output": 4286,
      "isf": 4287,
      "Ġoperations": 4288,
      "ĠUnter": 4289,
      "Ġvert": 4290,
      "Ġexisting": 4291,
      "Ġhands": 4292,
      "ederal": 4293,
      "asons": 4294,
      "ression": 4295,
      "ares": 4296,
      ")(": 4297,
      "ĠMath": 4298,
      "02": 4299,
      "Ġdamage": 4300,
      "With": 4301,
      "Ġ``": 4302,
      "rund": 4303,
      "Ġdifferences": 4304,
      "Ġteachers": 4305,
      "Ġcard": 4306,
      "Ġneighb": 4307,
      "Ġveget": 4308,
      "acht": 4309,
      "anch": 4310,
      "stell": 4311,
      "Ġpick": 4312,
      "Ġliterature": 4313,
      "ĠVers": 4314,
      "unch": 4315,
      "UN": 4316,
      "Ġvirt": 4317,
      "cel": 4318,
      "Ġconcent": 4319,
      "Ġbeautiful": 4320,
      "Ġcalculate": 4321,
      "ĠFurther": 4322,
      "ĠPa": 4323,
      "Ġ28": 4324,
      "++": 4325,
      "Ġwood": 4326,
      "Ġzero": 4327,
      "He": 4328,
      "Ġreceived": 4329,
      "Ġ2008": 4330,
      "Ġutil": 4331,
      "force": 4332,
      "Ġtypically": 4333,
      "Ġcompanies": 4334,
      "Ġbes": 4335,
      "Ġcontinued": 4336,
      "Ġlegal": 4337,
      "aught": 4338,
      "Ġprojects": 4339,
      "iche": 4340,
      "Ġanything": 4341,
      "Ġfat": 4342,
      "pass": 4343,
      "Ġsehr": 4344,
      "Ġincluded": 4345,
      "Ġsurrounding": 4346,
      "ĠDef": 4347,
      "kom": 4348,
      "Not": 4349,
      "uing": 4350,
      "Ġvector": 4351,
      "Ġwrong": 4352,
      "Ġpiece": 4353,
      "ĠEd": 4354,
      "Ġschon": 4355,
      "ĠCur": 4356,
      "ĠAre": 4357,
      "cm": 4358,
      "Ġexpand": 4359,
      "Set": 4360,
      "idden": 4361,
      "room": 4362,
      "result": 4363,
      "Ġhyp": 4364,
      "ĠInformation": 4365,
      "iers": 4366,
      "Ġforward": 4367,
      "Ġsel": 4368,
      "Ġsow": 4369,
      "fix": 4370,
      "Ġgew": 4371,
      "ancy": 4372,
      "Ġmaster": 4373,
      "rees": 4374,
      "ucle": 4375,
      "Ġlinear": 4376,
      "onic": 4377,
      "Ġsil": 4378,
      "arlier": 4379,
      "Ġhot": 4380,
      "Ġdiscovered": 4381,
      "Ġcore": 4382,
      "Ġequations": 4383,
      "TP": 4384,
      "rench": 4385,
      "Ġlaws": 4386,
      "parse": 4387,
      "Ġscen": 4388,
      "Ġmac": 4389,
      "Ġnumerous": 4390,
      "aur": 4391,
      "Ġnight": 4392,
      "Ġreact": 4393,
      "().": 4394,
      "names": 4395,
      "ĠData": 4396,
      "Ġresid": 4397,
      "ĠEl": 4398,
      "Ġlabor": 4399,
      "Ġsharing": 4400,
      "ĠChina": 4401,
      "cap": 4402,
      "sk": 4403,
      "Ġprobably": 4404,
      "Ġsociet": 4405,
      "Ġpatient": 4406,
      "Ġcomplet": 4407,
      "Ġimag": 4408,
      "Ġsoon": 4409,
      "ellig": 4410,
      "Ġunser": 4411,
      "bt": 4412,
      "vement": 4413,
      "Ġren": 4414,
      "Ġsetting": 4415,
      "nis": 4416,
      "********": 4417,
      "Ġsus": 4418,
      "fen": 4419,
      "ulti": 4420,
      "utils": 4421,
      "rote": 4422,
      "Ġsou": 4423,
      "arning": 4424,
      "Ġparent": 4425,
      "Ġcosts": 4426,
      "Ġactual": 4427,
      "09": 4428,
      "orders": 4429,
      "Ġdemand": 4430,
      "ĠDevelop": 4431,
      "Ġmoving": 4432,
      "Ġdu": 4433,
      "Ġrepl": 4434,
      "Ġrepresents": 4435,
      "Ġevalu": 4436,
      "Ġ\"\\": 4437,
      "Ġbad": 4438,
      "Ġserve": 4439,
      "base": 4440,
      "pha": 4441,
      "acc": 4442,
      "ĠJu": 4443,
      "Ġzwe": 4444,
      "enz": 4445,
      "ĠAc": 4446,
      "Ġpan": 4447,
      "netic": 4448,
      "ĠOur": 4449,
      "Ġargument": 4450,
      "bb": 4451,
      "ĠOnce": 4452,
      "Ġorganizations": 4453,
      "ĠKing": 4454,
      "Ġgoal": 4455,
      "Ġgibt": 4456,
      "Ġresistance": 4457,
      "Ġcapital": 4458,
      "57": 4459,
      "ĠAdditionally": 4460,
      "Ġpoor": 4461,
      "hol": 4462,
      "Ġmap": 4463,
      "ĠZeit": 4464,
      "Ġcommit": 4465,
      "Ġhund": 4466,
      "Ġprop": 4467,
      "cs": 4468,
      "Ġsituation": 4469,
      "Ġheight": 4470,
      "Ġfeature": 4471,
      "(\\": 4472,
      "wide": 4473,
      "Ġfront": 4474,
      "useum": 4475,
      "ĠEuropean": 4476,
      "Ġconcerns": 4477,
      "inated": 4478,
      "Ġfinding": 4479,
      "Ġmole": 4480,
      "ceed": 4481,
      "ĠĠĠĠĠĠĠĠĠĠĠĠĠĠĠĠĠĠĠĠĠĠĠĠĠĠĠ": 4482,
      "Ġgenerally": 4483,
      "ĠCommun": 4484,
      "Ġconclusion": 4485,
      "wid": 4486,
      "Ġexercise": 4487,
      "enses": 4488,
      "Ġoptim": 4489,
      "Here": 4490,
      "build": 4491,
      "Ġ27": 4492,
      "zeit": 4493,
      "ii": 4494,
      "Ġdistinct": 4495,
      "Ġadvent": 4496,
      "'):": 4497,
      "Ġgames": 4498,
      "Ġsettings": 4499,
      "Ġgard": 4500,
      "Ġnor": 4501,
      "Ġmeasures": 4502,
      "Ph": 4503,
      "Ġplot": 4504,
      "Ġrelevant": 4505,
      "Ġheard": 4506,
      "apping": 4507,
      "ormal": 4508,
      "Ġanimal": 4509,
      "style": 4510,
      "Ġmanufact": 4511,
      "Ġapplied": 4512,
      "uman": 4513,
      "Ġvariety": 4514,
      "Ġdecisions": 4515,
      "umb": 4516,
      "aith": 4517,
      "Ġmis": 4518,
      "Ġlack": 4519,
      "Ġdecided": 4520,
      "ĠEduc": 4521,
      "Â°": 4522,
      "edia": 4523,
      "Ġlimited": 4524,
      "dent": 4525,
      "ifying": 4526,
      "dem": 4527,
      "Ġfilled": 4528,
      "Ġrefers": 4529,
      "see": 4530,
      "cious": 4531,
      "Ġweeks": 4532,
      "Ġproduced": 4533,
      "Des": 4534,
      "Ġrunning": 4535,
      "Ġeyes": 4536,
      "elines": 4537,
      "rical": 4538,
      "Ġearlier": 4539,
      "........": 4540,
      "Ġrout": 4541,
      "amil": 4542,
      "Ġroom": 4543,
      "Ġspeak": 4544,
      "sect": 4545,
      "ĠFind": 4546,
      "ĠVor": 4547,
      "lean": 4548,
      "!!": 4549,
      "08": 4550,
      "ha": 4551,
      "ĠAlthough": 4552,
      "Ġmut": 4553,
      "option": 4554,
      "tz": 4555,
      "icies": 4556,
      "Ġcontroll": 4557,
      "ĠEs": 4558,
      "Ġimpl": 4559,
      "58": 4560,
      "ouch": 4561,
      "onds": 4562,
      "Ġgoes": 4563,
      "izer": 4564,
      "Ġgather": 4565,
      "ĠFeb": 4566,
      "Ġweb": 4567,
      "ĠAns": 4568,
      "Ġbeg": 4569,
      "Ġstore": 4570,
      "Ġrapid": 4571,
      "doc": 4572,
      "Ġspecifically": 4573,
      "46": 4574,
      "ĠTheir": 4575,
      "ĠInternet": 4576,
      "Ġsequence": 4577,
      "Ġpassed": 4578,
      "Ġten": 4579,
      "Ġ>>>": 4580,
      "uÃŁ": 4581,
      "iele": 4582,
      "Ġ29": 4583,
      "Ġeffectively": 4584,
      "Ġfoods": 4585,
      "dro": 4586,
      "Ġfore": 4587,
      "Ġarchitect": 4588,
      "ball": 4589,
      "Ġprivate": 4590,
      "Ġcarbon": 4591,
      "Ġtrees": 4592,
      "ĠOR": 4593,
      "ĠPat": 4594,
      "'])": 4595,
      "ipment": 4596,
      "ĠDon": 4597,
      "Ġsal": 4598,
      "================": 4599,
      "flow": 4600,
      "Ġcarry": 4601,
      "Ġbed": 4602,
      "eline": 4603,
      "osen": 4604,
      "Ġtopics": 4605,
      "Ġtend": 4606,
      "pace": 4607,
      "Ġsea": 4608,
      "\"),": 4609,
      "Ġstarting": 4610,
      "Ġtesting": 4611,
      "HO": 4612,
      "Ġsupply": 4613,
      "orial": 4614,
      "rs": 4615,
      "ĠEqu": 4616,
      "Ġjud": 4617,
      "values": 4618,
      "stream": 4619,
      "Ġallowed": 4620,
      "ML": 4621,
      "equal": 4622,
      "Ġteaching": 4623,
      "ĠInternational": 4624,
      "Ġbirth": 4625,
      "42": 4626,
      "Ġweiter": 4627,
      "Ġtherefore": 4628,
      "Ã¤ch": 4629,
      "ffect": 4630,
      "Ġmilitary": 4631,
      "ĠChar": 4632,
      "Ġpromote": 4633,
      "down": 4634,
      "table": 4635,
      "?\"": 4636,
      "do": 4637,
      "vis": 4638,
      "Ġmaximum": 4639,
      "ech": 4640,
      "Ġroad": 4641,
      "ialog": 4642,
      "Data": 4643,
      "nde": 4644,
      "Ġbur": 4645,
      "hold": 4646,
      "tra": 4647,
      "Ġappe": 4648,
      "Ġadvant": 4649,
      "Ġchanged": 4650,
      "board": 4651,
      "areness": 4652,
      "label": 4653,
      "ĠBet": 4654,
      "Ġillustr": 4655,
      "Ġprobability": 4656,
      "Ġwon": 4657,
      "Ġdieser": 4658,
      "File": 4659,
      "Ġensuring": 4660,
      "Ġpurpose": 4661,
      "07": 4662,
      "year": 4663,
      "ĠProgram": 4664,
      "Ġprotection": 4665,
      "Ġsubt": 4666,
      "ander": 4667,
      "ilarly": 4668,
      "Ġadjust": 4669,
      "dev": 4670,
      "Ġheld": 4671,
      "hren": 4672,
      "wick": 4673,
      "Ġtheor": 4674,
      "Ġgender": 4675,
      "Ġargs": 4676,
      "ether": 4677,
      "Ġplaying": 4678,
      "Ġwent": 4679,
      "Ġiniti": 4680,
      "update": 4681,
      "ĠCalcul": 4682,
      "Ġapproaches": 4683,
      "ktion": 4684,
      "Ã¶glich": 4685,
      "ĠRead": 4686,
      "Ġcentral": 4687,
      "split": 4688,
      "Ġlabel": 4689,
      "Ġflu": 4690,
      "sg": 4691,
      "ĠGes": 4692,
      "Ġcitiz": 4693,
      "Ġcolumn": 4694,
      "Ġ26": 4695,
      "ĠIndia": 4696,
      "ĠImagine": 4697,
      "pan": 4698,
      "ĠSer": 4699,
      "Ġconsequ": 4700,
      "Ġmount": 4701,
      "Ġexperiment": 4702,
      "plications": 4703,
      "abs": 4704,
      "ools": 4705,
      "ĠSk": 4706,
      "ĠHand": 4707,
      "chang": 4708,
      "arian": 4709,
      "ĠDeut": 4710,
      "Ġtechnologies": 4711,
      "Ġdry": 4712,
      "psy": 4713,
      "Ġconnected": 4714,
      "ĠJes": 4715,
      "Ġalternative": 4716,
      "Ġcop": 4717,
      "Ġprofession": 4718,
      "Ġhappens": 4719,
      "ĠEven": 4720,
      "Ġseason": 4721,
      "Par": 4722,
      "'m": 4723,
      "Der": 4724,
      "Le": 4725,
      "rap": 4726,
      "Ġguide": 4727,
      "imm": 4728,
      "ĠST": 4729,
      "post": 4730,
      "Ġlost": 4731,
      "Ġlessons": 4732,
      "gel": 4733,
      "Ġcolon": 4734,
      "water": 4735,
      "Ġrepe": 4736,
      "Ġsets": 4737,
      "Ġstre": 4738,
      "ĠStand": 4739,
      "Ġqual": 4740,
      "ĠGree": 4741,
      "hab": 4742,
      "ĠWir": 4743,
      "Ġsaw": 4744,
      "Ġsave": 4745,
      "Ġbackground": 4746,
      "ĠRep": 4747,
      "03": 4748,
      "onding": 4749,
      "ĠDi": 4750,
      "Ġchoices": 4751,
      "Ġplanet": 4752,
      "CE": 4753,
      "section": 4754,
      "uary": 4755,
      "json": 4756,
      "ĠSince": 4757,
      "ournal": 4758,
      "urb": 4759,
      "amental": 4760,
      "leich": 4761,
      "Ġpieces": 4762,
      "na": 4763,
      "Ġcounter": 4764,
      "Ġserious": 4765,
      "Ġbrought": 4766,
      "Ġreported": 4767,
      "Ġwin": 4768,
      "Ġbeginning": 4769,
      "level": 4770,
      "going": 4771,
      "Ġzw": 4772,
      "ĠâĢ¦": 4773,
      "clude": 4774,
      "Ġengaging": 4775,
      "Ġwrote": 4776,
      "Ġmotion": 4777,
      "usion": 4778,
      "ĠAfrican": 4779,
      "Ġtru": 4780,
      "ĠBar": 4781,
      "Ġhon": 4782,
      "Ġwide": 4783,
      "ĠCourse": 4784,
      "06": 4785,
      "Ġfight": 4786,
      "ĠDec": 4787,
      "ĠValue": 4788,
      "lines": 4789,
      "Ġign": 4790,
      "Ġinterpret": 4791,
      "rupt": 4792,
      "Ġyield": 4793,
      "Ġbacter": 4794,
      "Ġwanted": 4795,
      "LO": 4796,
      "Ġsem": 4797,
      "Ġinstr": 4798,
      "Ġsolid": 4799,
      "Ġminim": 4800,
      ")))": 4801,
      "ĠFrench": 4802,
      "akt": 4803,
      "ĠAlso": 4804,
      "ingu": 4805,
      "Ġcomfort": 4806,
      "Ġwaste": 4807,
      "Ġcultures": 4808,
      "Ġstage": 4809,
      "Ġ2007": 4810,
      "cean": 4811,
      "\\\\": 4812,
      "abase": 4813,
      "Ġisinstance": 4814,
      "Ġreference": 4815,
      "olve": 4816,
      "Ġreturns": 4817,
      "gest": 4818,
      "Ġdre": 4819,
      "status": 4820,
      "Ġprofessional": 4821,
      "ĠUsing": 4822,
      "hel": 4823,
      "Ġcollection": 4824,
      "inese": 4825,
      "ĠFound": 4826,
      "86": 4827,
      "ichen": 4828,
      "Ġadults": 4829,
      "Ġstyle": 4830,
      "Ġangle": 4831,
      "---": 4832,
      "Ġnothing": 4833,
      "`.": 4834,
      "inc": 4835,
      "Ġ?": 4836,
      "uer": 4837,
      "Ġtrade": 4838,
      "mathrm": 4839,
      "41": 4840,
      "ixt": 4841,
      "43": 4842,
      "ĠĠĠĠĠĠĠĠĠĠĠĠ": 4843,
      "Ġbodies": 4844,
      "ÂłÂłÂłÂłÂłÂłÂłÂł": 4845,
      "Ġremove": 4846,
      "Ġ(\"": 4847,
      "wa": 4848,
      "From": 4849,
      "ulated": 4850,
      "ĠSpec": 4851,
      "Ġbasis": 4852,
      "expected": 4853,
      "Ġbehavi": 4854,
      "ĠCor": 4855,
      "ĠSept": 4856,
      "Ġmiddle": 4857,
      "ĠCenter": 4858,
      "ĠSw": 4859,
      "UM": 4860,
      "ĠHar": 4861,
      "elle": 4862,
      "shape": 4863,
      "iner": 4864,
      "function": 4865,
      "Ġgoals": 4866,
      "Ġlived": 4867,
      "Ġplays": 4868,
      "HT": 4869,
      "het": 4870,
      "Ġfear": 4871,
      "Ġparameters": 4872,
      "artment": 4873,
      "Ġdark": 4874,
      "Ġgegen": 4875,
      "ĠHistory": 4876,
      "lam": 4877,
      "Ġbul": 4878,
      "hips": 4879,
      "Ġfilter": 4880,
      "Ġauthors": 4881,
      "________________": 4882,
      "Ġalgorithm": 4883,
      "Ġsatisf": 4884,
      "Me": 4885,
      "Ġice": 4886,
      "ĠDuring": 4887,
      "Ġfresh": 4888,
      "Ġdescribed": 4889,
      "Ġord": 4890,
      "ille": 4891,
      "Ġreaders": 4892,
      "mary": 4893,
      "Ġsolar": 4894,
      "Ġpy": 4895,
      "ĠNach": 4896,
      "Ġgeometry": 4897,
      "ðĿĳ": 4898,
      "Ġclin": 4899,
      "Ġpolicies": 4900,
      "rat": 4901,
      "Ġhealthcare": 4902,
      "Ġmid": 4903,
      "azing": 4904,
      "Ġdistributed": 4905,
      "Ġgets": 4906,
      "position": 4907,
      "Ġresulting": 4908,
      "mm": 4909,
      "Ġunc": 4910,
      "Ġveh": 4911,
      "ĠLand": 4912,
      "ĠHol": 4913,
      "No": 4914,
      "gra": 4915,
      "client": 4916,
      "Ġdegree": 4917,
      "edom": 4918,
      "ildren": 4919,
      "ĠApril": 4920,
      "Ġze": 4921,
      "conds": 4922,
      "ĠGet": 4923,
      "ĠAugust": 4924,
      "was": 4925,
      "Ġthoughts": 4926,
      "Ġchoice": 4927,
      "Ġplanning": 4928,
      "Ġpicture": 4929,
      "Ġalthough": 4930,
      "Ġstri": 4931,
      "Ġwatch": 4932,
      "ĠMost": 4933,
      "Ġeat": 4934,
      "Ġhabit": 4935,
      "eme": 4936,
      "icher": 4937,
      "Ġreturned": 4938,
      "rum": 4939,
      "Ġtherapy": 4940,
      "eler": 4941,
      "rition": 4942,
      "omial": 4943,
      "ĠWest": 4944,
      "open": 4945,
      "ectors": 4946,
      "dd": 4947,
      "ructure": 4948,
      "Ġbenefit": 4949,
      "last": 4950,
      "othes": 4951,
      "################################": 4952,
      "Ġfeelings": 4953,
      "ĠBas": 4954,
      "ĠOf": 4955,
      "arrow": 4956,
      "Ġnews": 4957,
      "Ġoutcomes": 4958,
      "proper": 4959,
      "Das": 4960,
      "ros": 4961,
      "urance": 4962,
      "ĠLaw": 4963,
      "Ġchallenging": 4964,
      "raint": 4965,
      "ĠMoreover": 4966,
      "Ġnation": 4967,
      "Ġsold": 4968,
      "ĠFurthermore": 4969,
      "Ġmode": 4970,
      "ĠGerman": 4971,
      "zing": 4972,
      "alysis": 4973,
      "ierung": 4974,
      "mitted": 4975,
      "ald": 4976,
      "Ġstatement": 4977,
      "Ġbab": 4978,
      "Ġfrequency": 4979,
      "Ġteacher": 4980,
      "ĠRemember": 4981,
      "ashing": 4982,
      "crete": 4983,
      "Ind": 4984,
      "Ġiter": 4985,
      "Ġemotional": 4986,
      "Ġgenerate": 4987,
      "ibly": 4988,
      "Ġabsol": 4989,
      "display": 4990,
      "Ġmiles": 4991,
      "Ġreceive": 4992,
      "cd": 4993,
      "allel": 4994,
      "Ġphilosoph": 4995,
      "ĠClass": 4996,
      "item": 4997,
      "Ġprepar": 4998,
      "Ġhighly": 4999,
      "Ġindependent": 5000,
      "Ġadding": 5001,
      "Ġreduced": 5002,
      "body": 5003,
      "active": 5004,
      "Ġtoward": 5005,
      "Ġcompar": 5006,
      "\">": 5007,
      "Post": 5008,
      "response": 5009,
      "Ġsituations": 5010,
      "Ġofficial": 5011,
      "Ġpurch": 5012,
      "Ġeasier": 5013,
      "Ġleaves": 5014,
      "Ġdiseases": 5015,
      "ĠWeb": 5016,
      "ĠConst": 5017,
      "Ġlayer": 5018,
      "Ġ##": 5019,
      "Ġvital": 5020,
      "Ġsignal": 5021,
      "opyright": 5022,
      "Ġ2015": 5023,
      "otic": 5024,
      "ĠDav": 5025,
      "sec": 5026,
      "Ġchanging": 5027,
      "fit": 5028,
      "iforn": 5029,
      "unt": 5030,
      "ĠSet": 5031,
      "api": 5032,
      "Ġacadem": 5033,
      "Ġanyone": 5034,
      "encing": 5035,
      "Time": 5036,
      "Ġattack": 5037,
      "ĠOther": 5038,
      ")/": 5039,
      "Ġtiss": 5040,
      "PE": 5041,
      "Ġgradu": 5042,
      "iced": 5043,
      "IF": 5044,
      "56": 5045,
      "ĠUp": 5046,
      "iate": 5047,
      "plot": 5048,
      "Ġlibrary": 5049,
      "Ġonto": 5050,
      "ĠHigh": 5051,
      "cil": 5052,
      "Ġfollowed": 5053,
      "Ġegg": 5054,
      "Ġdespite": 5055,
      "Ġ$$\\": 5056,
      "command": 5057,
      "coh": 5058,
      "Ġgiving": 5059,
      "Ġenter": 5060,
      "Ġcand": 5061,
      "ĠKom": 5062,
      "Ġmaintaining": 5063,
      "root": 5064,
      "ributes": 5065,
      "à¤": 5066,
      "ama": 5067,
      "Ġworth": 5068,
      "Ġger": 5069,
      "olving": 5070,
      "These": 5071,
      "Ġtasks": 5072,
      "Ġlocated": 5073,
      "atur": 5074,
      "itutions": 5075,
      "ĠThus": 5076,
      "Ġsurpr": 5077,
      "Ġfavorite": 5078,
      "ping": 5079,
      "Ġacqu": 5080,
      "ĠAdd": 5081,
      "CL": 5082,
      "Ġadvanced": 5083,
      "Ġ2016": 5084,
      "Ġadvance": 5085,
      "uzz": 5086,
      "Ġblue": 5087,
      "DF": 5088,
      "Ġappreciate": 5089,
      "iance": 5090,
      "ĠPress": 5091,
      "Ġconstruction": 5092,
      "psych": 5093,
      "tag": 5094,
      "rab": 5095,
      "Ġhabe": 5096,
      "ĠâĪĴ": 5097,
      "]:": 5098,
      "owers": 5099,
      "First": 5100,
      "ĠCity": 5101,
      "Ġworkers": 5102,
      "pty": 5103,
      "ĠOut": 5104,
      "76": 5105,
      "box": 5106,
      "Ġwebsite": 5107,
      "enen": 5108,
      "Ġphen": 5109,
      "Ġcapacity": 5110,
      "ANT": 5111,
      "MS": 5112,
      "ĠPhys": 5113,
      "ÃŁe": 5114,
      "olved": 5115,
      "piel": 5116,
      "OL": 5117,
      "Ġvary": 5118,
      "ĠIr": 5119,
      "Ġhelping": 5120,
      "Ġcomprehens": 5121,
      "ĠChinese": 5122,
      "ĠArch": 5123,
      "Ġrisks": 5124,
      "augh": 5125,
      "'))": 5126,
      "lie": 5127,
      "tage": 5128,
      "Ġbere": 5129,
      "PS": 5130,
      "oined": 5131,
      "Ġson": 5132,
      "Ġmember": 5133,
      "Ġmob": 5134,
      "ĠMarch": 5135,
      "Ġinher": 5136,
      "Ġcompletely": 5137,
      "Ġrelative": 5138,
      "ĠIndian": 5139,
      "ĠMag": 5140,
      "bin": 5141,
      "ĠAccording": 5142,
      "Ġfully": 5143,
      "Ġperhaps": 5144,
      "cipl": 5145,
      "gu": 5146,
      "Ġhous": 5147,
      "Ġcomment": 5148,
      "rec": 5149,
      "msg": 5150,
      "Ġsymbol": 5151,
      "can": 5152,
      "gener": 5153,
      "cons": 5154,
      "ĠSam": 5155,
      "Ġinstruct": 5156,
      "Ã¤s": 5157,
      "Ġtransfer": 5158,
      "Ġequipment": 5159,
      "Ġworked": 5160,
      "Ġleave": 5161,
      "Ġpeace": 5162,
      "Ġlat": 5163,
      "Ġingred": 5164,
      "lor": 5165,
      "Ġcraft": 5166,
      "udd": 5167,
      "ĠDesign": 5168,
      "Ġtold": 5169,
      "Ã¼ss": 5170,
      "While": 5171,
      "iding": 5172,
      "Ġdelve": 5173,
      "vision": 5174,
      "Value": 5175,
      "Ġinternal": 5176,
      "Ġopportunity": 5177,
      "ĠKey": 5178,
      "Ġround": 5179,
      "pped": 5180,
      "Ġdepending": 5181,
      "ĠComput": 5182,
      "Ġsites": 5183,
      "Ġagric": 5184,
      "cr": 5185,
      "Ġratio": 5186,
      "Ġ;": 5187,
      "eloc": 5188,
      "oke": 5189,
      "Ġhappen": 5190,
      "target": 5191,
      "Ġconvert": 5192,
      "var": 5193,
      "olumn": 5194,
      "Ġschol": 5195,
      "Ġrecover": 5196,
      "Ġ2014": 5197,
      "ĠHel": 5198,
      "ĠFin": 5199,
      "ĠJune": 5200,
      "ĠÃľ": 5201,
      "Ġanx": 5202,
      "rael": 5203,
      "Ġdrink": 5204,
      "tr": 5205,
      "Ġcharge": 5206,
      "gers": 5207,
      "Ġengage": 5208,
      "Ġwel": 5209,
      "Ġresil": 5210,
      "Ġcontaining": 5211,
      "ĠBo": 5212,
      "Ġeines": 5213,
      "ript": 5214,
      "Ġemail": 5215,
      "Ġstream": 5216,
      "erved": 5217,
      "ĠAfrica": 5218,
      "ords": 5219,
      "Ġincred": 5220,
      "gment": 5221,
      "Ġacid": 5222,
      "ifornia": 5223,
      "halten": 5224,
      "Ġnucle": 5225,
      "Ġreasons": 5226,
      "core": 5227,
      "Ġfamous": 5228,
      "Ġvit": 5229,
      "rier": 5230,
      "ESS": 5231,
      "Ġcolors": 5232,
      "Ġours": 5233,
      "Ġmaybe": 5234,
      "Ġdra": 5235,
      "Ġbelong": 5236,
      "itÃ¤t": 5237,
      "ĠDet": 5238,
      "tegr": 5239,
      "Ġvirus": 5240,
      "Ġenviron": 5241,
      "link": 5242,
      "cem": 5243,
      "cause": 5244,
      "ĠDies": 5245,
      "irt": 5246,
      "Ġsignificance": 5247,
      "Ġreality": 5248,
      "ĠDepartment": 5249,
      "sqrt": 5250,
      "ĠCanada": 5251,
      "ĠJesus": 5252,
      "Ġbusinesses": 5253,
      "Ġmentioned": 5254,
      "ĠGreat": 5255,
      "Ġachieve": 5256,
      "Ġtechnique": 5257,
      "ĠWind": 5258,
      "ĠType": 5259,
      "Ġweather": 5260,
      "Ġclasses": 5261,
      "abetes": 5262,
      "ĠSur": 5263,
      "Ġoperation": 5264,
      "Ġpromoting": 5265,
      "gress": 5266,
      "ightly": 5267,
      "ĠOff": 5268,
      "Ġfollows": 5269,
      "Ġcurrently": 5270,
      "ĠGoogle": 5271,
      "Ġeating": 5272,
      "Have": 5273,
      "Ġprotein": 5274,
      "Ġsexual": 5275,
      "annel": 5276,
      "rame": 5277,
      "dim": 5278,
      "Ġcos": 5279,
      "ĠSeptember": 5280,
      "hl": 5281,
      "Ġstandards": 5282,
      "Ġweak": 5283,
      "Ġorganization": 5284,
      "Ġtopic": 5285,
      "[:": 5286,
      "ĠAtt": 5287,
      "Ġeducational": 5288,
      "Ġartists": 5289,
      "estic": 5290,
      "Ġfuel": 5291,
      "berg": 5292,
      "Ġolder": 5293,
      "Ġgenerations": 5294,
      "Ġdouble": 5295,
      "Up": 5296,
      "filter": 5297,
      "foo": 5298,
      "Ġpopulations": 5299,
      "Ġfostering": 5300,
      "84": 5301,
      "ĠTHE": 5302,
      "ĠMc": 5303,
      "âĢĿ,": 5304,
      "np": 5305,
      "Ġvict": 5306,
      "ĠInstead": 5307,
      "page": 5308,
      "Ġfaith": 5309,
      "Ġdoctor": 5310,
      "Ġswe": 5311,
      "ĠDay": 5312,
      "Ġupd": 5313,
      "Ġmagn": 5314,
      "CC": 5315,
      "Ġatm": 5316,
      "chied": 5317,
      "Ġfelt": 5318,
      "Ġsides": 5319,
      "ga": 5320,
      "Ġserver": 5321,
      "'}),": 5322,
      "Ġready": 5323,
      "Ġsounds": 5324,
      "Ġgir": 5325,
      "Ġcontinuous": 5326,
      "Ġseparate": 5327,
      "Ġfundamental": 5328,
      "Ġhar": 5329,
      ")$": 5330,
      "esson": 5331,
      "Ġaffected": 5332,
      "Ġsimpl": 5333,
      "ractions": 5334,
      "Ġcoming": 5335,
      "Ġdanger": 5336,
      "iable": 5337,
      "ĠInstitute": 5338,
      "ĠNovember": 5339,
      "EL": 5340,
      "td": 5341,
      "ativity": 5342,
      "Ġalone": 5343,
      "Ġstraight": 5344,
      "95": 5345,
      "Ġcry": 5346,
      "ibilities": 5347,
      "Ġperspectives": 5348,
      "icip": 5349,
      "Ġincreasingly": 5350,
      "Ġtraditions": 5351,
      "Ġlargest": 5352,
      "Ġnotice": 5353,
      "Ġlanguages": 5354,
      "PL": 5355,
      "Ġcircum": 5356,
      "87": 5357,
      "ĠIntroduction": 5358,
      "Ġintellig": 5359,
      "Ġstudying": 5360,
      "icing": 5361,
      "ifier": 5362,
      "Ġfacilit": 5363,
      "Ġgar": 5364,
      "acing": 5365,
      "Ġaren": 5366,
      "ĠEducation": 5367,
      "Ġkn": 5368,
      "Ġcitizens": 5369,
      "ĠPeople": 5370,
      "Ġwis": 5371,
      "ica": 5372,
      "Ġstrategy": 5373,
      "ava": 5374,
      "Ġtrig": 5375,
      "Ġsmooth": 5376,
      "Ġsugar": 5377,
      "Ġequival": 5378,
      "content": 5379,
      "lock": 5380,
      "Ġdefine": 5381,
      "Ġinvolving": 5382,
      "Ġoccurs": 5383,
      "inates": 5384,
      "ĠĠĠĠĠĠĠĠĠĠ": 5385,
      "Ġscript": 5386,
      "ĠWork": 5387,
      "while": 5388,
      "Ġaxis": 5389,
      "ĠStr": 5390,
      "Ġawareness": 5391,
      "500": 5392,
      "ĠGesch": 5393,
      "Ġfeeling": 5394,
      "ĠMal": 5395,
      "}^{": 5396,
      "uple": 5397,
      "IR": 5398,
      "pa": 5399,
      "Ġinner": 5400,
      "Ġnotes": 5401,
      "gypt": 5402,
      "ĠProf": 5403,
      "Ġprocessing": 5404,
      "Ġcreative": 5405,
      "ĠPract": 5406,
      "Ġexpert": 5407,
      "Ġemotions": 5408,
      "cher": 5409,
      "keys": 5410,
      "Ġhimself": 5411,
      "Ġdegrees": 5412,
      "Ġdead": 5413,
      "ometimes": 5414,
      "ĠStat": 5415,
      "Ġcausing": 5416,
      "Ġbecoming": 5417,
      "current": 5418,
      "tty": 5419,
      "Ġrise": 5420,
      "ĠPark": 5421,
      "Ġenhance": 5422,
      "igure": 5423,
      "Ġincome": 5424,
      "MAT": 5425,
      "ev": 5426,
      "float": 5427,
      "reme": 5428,
      "abled": 5429,
      "iveness": 5430,
      "Ġrecently": 5431,
      "Ġwat": 5432,
      "Ġspaces": 5433,
      "Ġsin": 5434,
      "Ġhandle": 5435,
      "Ġdiscussion": 5436,
      "Ġevolution": 5437,
      "Ġincreases": 5438,
      "ĠTime": 5439,
      "ĠIts": 5440,
      "Ġregions": 5441,
      "Ġdefinition": 5442,
      "Ġkeine": 5443,
      "ĠCalifornia": 5444,
      "ĠWhy": 5445,
      "ĠâĨ": 5446,
      "Ġexposure": 5447,
      "po": 5448,
      "source": 5449,
      "unapp": 5450,
      "Ġreducing": 5451,
      "App": 5452,
      "Ġfindings": 5453,
      "options": 5454,
      "Ġcomponent": 5455,
      "({": 5456,
      "Ġ80": 5457,
      "ĠEngland": 5458,
      "Ġshall": 5459,
      "Ġgest": 5460,
      "Ġmanage": 5461,
      "repr": 5462,
      "Ġplaced": 5463,
      "win": 5464,
      "}$$": 5465,
      "54": 5466,
      "Ġ2017": 5467,
      "Ġexamine": 5468,
      "Another": 5469,
      "PO": 5470,
      "then": 5471,
      "isl": 5472,
      "Ġlesson": 5473,
      "Ġroll": 5474,
      "ĠUm": 5475,
      "Ġpoly": 5476,
      "Ġ2006": 5477,
      "Ġwave": 5478,
      "Or": 5479,
      "Ġpartners": 5480,
      "Ġbuy": 5481,
      "Ġclient": 5482,
      "icks": 5483,
      "ĠDisc": 5484,
      "Ġexhib": 5485,
      "SS": 5486,
      "adt": 5487,
      "Ġeing": 5488,
      "ĠMens": 5489,
      "ipe": 5490,
      "tings": 5491,
      "Ġanswers": 5492,
      "Ġliqu": 5493,
      "asure": 5494,
      "ondon": 5495,
      "Ġcoast": 5496,
      "Ġpriv": 5497,
      "Ġspecified": 5498,
      "Ġcompl": 5499,
      "âĢĿ.": 5500,
      "Ob": 5501,
      "Ret": 5502,
      "Ġhelped": 5503,
      "ĠPower": 5504,
      "Ġdeal": 5505,
      "Ġdro": 5506,
      "Ġreplace": 5507,
      "Ġexcess": 5508,
      "hetic": 5509,
      "Ġfalse": 5510,
      "uft": 5511,
      "hest": 5512,
      "Ġnearly": 5513,
      "Ġspect": 5514,
      "being": 5515,
      "=[": 5516,
      "ographic": 5517,
      "ĠSocial": 5518,
      "uster": 5519,
      "hn": 5520,
      "Ġfaced": 5521,
      "sets": 5522,
      "Ġarguments": 5523,
      "Ġrecommend": 5524,
      "Ġformed": 5525,
      "ford": 5526,
      "ĠInc": 5527,
      "ĠExper": 5528,
      "Ġshaping": 5529,
      "ĠKon": 5530,
      "Ã¼nd": 5531,
      "quest": 5532,
      "isten": 5533,
      "bug": 5534,
      "Ġbeliefs": 5535,
      "pat": 5536,
      "ĠDem": 5537,
      "erb": 5538,
      "Ġexists": 5539,
      "ĠFree": 5540,
      "ĠJournal": 5541,
      "ĠEv": 5542,
      "Ġviews": 5543,
      "elocity": 5544,
      "ĠĠĠĠĠĠĠĠĠĠĠĠĠ": 5545,
      "ĠPerson": 5546,
      "Ġconv": 5547,
      "Ġcarefully": 5548,
      "Ġsigns": 5549,
      "Ġapproximately": 5550,
      "Ġadvoc": 5551,
      "Ġsustainable": 5552,
      "fin": 5553,
      "Ġenvironments": 5554,
      "ĠBi": 5555,
      "Ġcircuit": 5556,
      "ĠïĢ": 5557,
      "ĠAmericans": 5558,
      "Ġschem": 5559,
      "Ġfinally": 5560,
      "bi": 5561,
      "heet": 5562,
      "tters": 5563,
      "Sub": 5564,
      "Ġstar": 5565,
      "Ġeventually": 5566,
      "Fl": 5567,
      "aled": 5568,
      "ded": 5569,
      "Ġourselves": 5570,
      "Ġrequirements": 5571,
      "uls": 5572,
      "iffer": 5573,
      "Ġentry": 5574,
      "Ġjustice": 5575,
      "Ġcreation": 5576,
      "Ġimpos": 5577,
      "Ġmarg": 5578,
      "ĠÂ»": 5579,
      "Ġhighlight": 5580,
      "Ġ90": 5581,
      "Ġrecords": 5582,
      "ĠUN": 5583,
      "ework": 5584,
      "anish": 5585,
      "Ġenable": 5586,
      "ĠThink": 5587,
      "Ġcontract": 5588,
      "Ġchance": 5589,
      "Ġpractical": 5590,
      "~~": 5591,
      "Ġthemes": 5592,
      "ĠRoman": 5593,
      "range": 5594,
      "Ã¶ff": 5595,
      "Ġhour": 5596,
      "Ġflex": 5597,
      "ĠMake": 5598,
      "Ġcities": 5599,
      "Ġboard": 5600,
      "Form": 5601,
      "iling": 5602,
      "ĠIsrael": 5603,
      "abric": 5604,
      "hne": 5605,
      "Ġerrors": 5606,
      "Ġdiversity": 5607,
      "52": 5608,
      "97": 5609,
      "Ġrock": 5610,
      "Ġextrem": 5611,
      "Ġbottom": 5612,
      "ĠBlack": 5613,
      "TR": 5614,
      "weise": 5615,
      "Ġborn": 5616,
      "Ġurban": 5617,
      "Ġthousands": 5618,
      "sel": 5619,
      "orge": 5620,
      "Ġnarratives": 5621,
      "ĠTwo": 5622,
      "Ġtruth": 5623,
      "Ġseeking": 5624,
      "parent": 5625,
      "types": 5626,
      "ammen": 5627,
      "aching": 5628,
      "Ġphenomen": 5629,
      "main": 5630,
      "ocal": 5631,
      "ĠPort": 5632,
      "anguage": 5633,
      "ohl": 5634,
      "Ġencounter": 5635,
      "Ġtitle": 5636,
      "Ġsevere": 5637,
      "Â²": 5638,
      "Ġexperienced": 5639,
      "ĠTherefore": 5640,
      "house": 5641,
      "Ġmathematical": 5642,
      "ef": 5643,
      "ees": 5644,
      "icon": 5645,
      "emplate": 5646,
      "orb": 5647,
      "ĠHave": 5648,
      "Ġfigures": 5649,
      "ĠSoftware": 5650,
      "enty": 5651,
      "pathy": 5652,
      "ĠJuly": 5653,
      "ham": 5654,
      "ira": 5655,
      "dig": 5656,
      "Ġmock": 5657,
      "wend": 5658,
      "Ġplease": 5659,
      "Ġmich": 5660,
      "ups": 5661,
      "Ġtag": 5662,
      "Ġnorth": 5663,
      "Ġplayed": 5664,
      "However": 5665,
      "Ġmessages": 5666,
      "Case": 5667,
      "ĠAlex": 5668,
      ")]": 5669,
      "ĠGovern": 5670,
      "53": 5671,
      "Ġideal": 5672,
      "Ã¤lt": 5673,
      "Ġdepth": 5674,
      "Ġcir": 5675,
      "Ġadminist": 5676,
      "Ġongoing": 5677,
      "Ġrepresentation": 5678,
      "Ġextract": 5679,
      "Ġsav": 5680,
      "Ġmovements": 5681,
      "Ġminimum": 5682,
      "Ġspiritual": 5683,
      "Ġtail": 5684,
      "cember": 5685,
      "=\\": 5686,
      "Ġalgebra": 5687,
      "Bob": 5688,
      "After": 5689,
      "Ġpages": 5690,
      "Cre": 5691,
      "ĠProdu": 5692,
      "igration": 5693,
      "oses": 5694,
      "#####": 5695,
      "fÃ¼hr": 5696,
      "Ġaccurate": 5697,
      "ĠNor": 5698,
      "ario": 5699,
      "Ġrespond": 5700,
      "ĠFra": 5701,
      "ĠSum": 5702,
      "arten": 5703,
      "ĉĉĉ": 5704,
      "Ġeconomy": 5705,
      "Ġmonit": 5706,
      "Ġsend": 5707,
      "cohol": 5708,
      "ogether": 5709,
      "ĠBre": 5710,
      "Ġamazing": 5711,
      "vari": 5712,
      "EST": 5713,
      "Ġnetworks": 5714,
      "Ġotherwise": 5715,
      "nehmen": 5716,
      "Ġsynt": 5717,
      "atural": 5718,
      "anging": 5719,
      "Ġrare": 5720,
      "Ġinterests": 5721,
      "roy": 5722,
      "ratic": 5723,
      "Ġexternal": 5724,
      "ĠSan": 5725,
      "Ġbreath": 5726,
      "Ġfert": 5727,
      "Conclusion": 5728,
      "Ġinvolve": 5729,
      "ĠOrgan": 5730,
      "Ġtour": 5731,
      "sm": 5732,
      "Ġpurs": 5733,
      "Ġforeign": 5734,
      "Ġopin": 5735,
      "ĠAssoci": 5736,
      "ĠSl": 5737,
      "ĠConsider": 5738,
      "Ġburn": 5739,
      "ĠMor": 5740,
      "ico": 5741,
      "String": 5742,
      "ĠFil": 5743,
      "Ġroots": 5744,
      "83": 5745,
      "ĠAND": 5746,
      "Ġmix": 5747,
      "ĠSign": 5748,
      "ĠUnd": 5749,
      "Ġturned": 5750,
      "bra": 5751,
      "Ġstorage": 5752,
      "Ġtele": 5753,
      "Ġexamining": 5754,
      "Ġvast": 5755,
      "Ġoccup": 5756,
      "Ġcircle": 5757,
      "Ġattract": 5758,
      "Ġeight": 5759,
      "Ġ32": 5760,
      "teger": 5761,
      "Ġ2005": 5762,
      "Ġletter": 5763,
      "Ġsummer": 5764,
      "ptions": 5765,
      "Ġexperim": 5766,
      "oto": 5767,
      "Ã¶s": 5768,
      "Ġanti": 5769,
      "View": 5770,
      "Ġintric": 5771,
      "objects": 5772,
      "ĠIhr": 5773,
      "SD": 5774,
      "adata": 5775,
      "akers": 5776,
      "atically": 5777,
      "ipped": 5778,
      "Ġprofessionals": 5779,
      "Ġworldwide": 5780,
      "Ġfederal": 5781,
      "Ġplans": 5782,
      "aign": 5783,
      "step": 5784,
      "icated": 5785,
      "produ": 5786,
      "63": 5787,
      "Ġwall": 5788,
      "Ġpet": 5789,
      "inations": 5790,
      "Ġhydro": 5791,
      "Ġsowie": 5792,
      "close": 5793,
      "Ġthread": 5794,
      "Ġglass": 5795,
      "ognitive": 5796,
      "Ġfamiliar": 5797,
      "Ġfreedom": 5798,
      "image": 5799,
      "ayer": 5800,
      "Ġgel": 5801,
      "Ġinfection": 5802,
      "isation": 5803,
      "Ġbin": 5804,
      "ĠSuch": 5805,
      "ĠAv": 5806,
      "Ġmother": 5807,
      "Ġengineering": 5808,
      "isk": 5809,
      "Ġgenetic": 5810,
      "atin": 5811,
      "ara": 5812,
      "Why": 5813,
      "Ġroles": 5814,
      "Ġinvent": 5815,
      "Ġrh": 5816,
      "Ġalign": 5817,
      "Ġcold": 5818,
      "Ġvoltage": 5819,
      "Ġkon": 5820,
      "Ġdetect": 5821,
      "Ġlandscape": 5822,
      "Ne": 5823,
      "Ġsac": 5824,
      "exp": 5825,
      "Ġbank": 5826,
      "asts": 5827,
      "Ġinteger": 5828,
      "Ġdescribe": 5829,
      "icit": 5830,
      "ĠMet": 5831,
      "Ġparameter": 5832,
      "Fe": 5833,
      "Ġempty": 5834,
      "Ġdrawing": 5835,
      "onal": 5836,
      "Ġpen": 5837,
      "clusive": 5838,
      "ĠGen": 5839,
      "Ġefficiency": 5840,
      "aum": 5841,
      "bf": 5842,
      "Man": 5843,
      "ĠWilli": 5844,
      "Ġast": 5845,
      "Ġphase": 5846,
      "Char": 5847,
      "Ġimproved": 5848,
      "Ġcommonly": 5849,
      "ĠAir": 5850,
      "Ġappears": 5851,
      "Ġlooks": 5852,
      "ĠÐ": 5853,
      "rich": 5854,
      "Out": 5855,
      "fre": 5856,
      "Ġcontrast": 5857,
      "itage": 5858,
      "!\"": 5859,
      "abei": 5860,
      "}_{": 5861,
      "ĠEgypt": 5862,
      "ĠStudents": 5863,
      "Ġking": 5864,
      "ĠBra": 5865,
      "ĠOpen": 5866,
      "Ġfrequently": 5867,
      "yles": 5868,
      "igkeit": 5869,
      "Ġeinf": 5870,
      "ĠOctober": 5871,
      "(_": 5872,
      "halt": 5873,
      "bal": 5874,
      "Ġhoriz": 5875,
      "Ġdeut": 5876,
      "ĠMr": 5877,
      "Ġleads": 5878,
      "Ġpresented": 5879,
      "Ġvill": 5880,
      "Ġmist": 5881,
      "Ġunivers": 5882,
      "Ġcharacteristics": 5883,
      "Ġwoman": 5884,
      "anation": 5885,
      "Ġsouth": 5886,
      "Ġworry": 5887,
      "Ġconsumption": 5888,
      "Ġresist": 5889,
      "Ġframe": 5890,
      "message": 5891,
      "ĠIdent": 5892,
      "ĠHot": 5893,
      "Ġdomain": 5894,
      "nah": 5895,
      "Ġdiesem": 5896,
      "ĠAP": 5897,
      "ĠGer": 5898,
      "82": 5899,
      "Ġsoft": 5900,
      "Ġillness": 5901,
      "Ġvision": 5902,
      "Ġ2000": 5903,
      "ĠLondon": 5904,
      "Ġproport": 5905,
      "ĠBel": 5906,
      "sim": 5907,
      "antic": 5908,
      "Ġassist": 5909,
      "Ġvibr": 5910,
      "Ã¤n": 5911,
      "96": 5912,
      "Ġcharg": 5913,
      "ĠNet": 5914,
      "Ġscreen": 5915,
      "annt": 5916,
      "ĠCheck": 5917,
      "Ġjournal": 5918,
      "Ġfixed": 5919,
      "Ġsuppl": 5920,
      "NU": 5921,
      "fact": 5922,
      "ested": 5923,
      "Ġmedicine": 5924,
      "Ġmuss": 5925,
      "ĠPlan": 5926,
      "faces": 5927,
      "Ġintroduced": 5928,
      "racing": 5929,
      "erk": 5930,
      "ĠÏ": 5931,
      "long": 5932,
      "Ġihre": 5933,
      "Ġcycle": 5934,
      "OD": 5935,
      "ĠElect": 5936,
      "Ġimmediately": 5937,
      "ĠCong": 5938,
      "ĠTim": 5939,
      "iden": 5940,
      "ĠHome": 5941,
      "ĠFoundation": 5942,
      "Ġconsequences": 5943,
      "env": 5944,
      "ĠMich": 5945,
      "ĠâĢ¢": 5946,
      "Ġprimarily": 5947,
      "oving": 5948,
      "ĠMax": 5949,
      "ĠMex": 5950,
      "inger": 5951,
      "ĠFebru": 5952,
      "osite": 5953,
      "ellt": 5954,
      "Ġfocused": 5955,
      "Ġcombination": 5956,
      "Ġinstitutions": 5957,
      "ashington": 5958,
      "icode": 5959,
      "otes": 5960,
      "ĠRec": 5961,
      "ĠBoth": 5962,
      "ocation": 5963,
      "ĠVol": 5964,
      "ĠSimilarly": 5965,
      "usammen": 5966,
      "Ġfemale": 5967,
      "making": 5968,
      "Ġtun": 5969,
      "ĠPal": 5970,
      "Ġinnovative": 5971,
      "aset": 5972,
      "Ġsupported": 5973,
      "filename": 5974,
      "ĠChall": 5975,
      "fr": 5976,
      "ĠCON": 5977,
      "Ġdrug": 5978,
      "Ġble": 5979,
      "Num": 5980,
      "Ġ'''": 5981,
      "Ġknows": 5982,
      "Ġshapes": 5983,
      "ĠRev": 5984,
      "ĠThom": 5985,
      "Ġvelocity": 5986,
      "iform": 5987,
      "ĠBild": 5988,
      "Sch": 5989,
      "Ġsong": 5990,
      "ĠBecause": 5991,
      "Ġcontinues": 5992,
      "Ġrelease": 5993,
      "Ġdensity": 5994,
      "rome": 5995,
      "ĠJanuary": 5996,
      "Ġjoin": 5997,
      "Ġbacteria": 5998,
      "Ġbatter": 5999,
      "Ġkil": 6000,
      "Att": 6001,
      "ĠManagement": 6002,
      "Ġobserved": 6003,
      "Ġtro": 6004,
      "Ġkeeping": 6005,
      "Ġwait": 6006,
      "Some": 6007,
      "Ġhappened": 6008,
      "Ġ31": 6009,
      "ameter": 6010,
      "Ġshowed": 6011,
      "Aut": 6012,
      "Ġdetermined": 6013,
      "Ġbirds": 6014,
      "isen": 6015,
      "Ġstim": 6016,
      "ums": 6017,
      "Ġcollaboration": 6018,
      "Ġstreng": 6019,
      "Ġec": 6020,
      "Ġseine": 6021,
      "ĠEast": 6022,
      "Ġdialog": 6023,
      "itted": 6024,
      "Ġ=>": 6025,
      "ifies": 6026,
      "New": 6027,
      "ped": 6028,
      "51": 6029,
      "omb": 6030,
      "Ġrein": 6031,
      "icious": 6032,
      "token": 6033,
      "Ġformer": 6034,
      "ingly": 6035,
      "cular": 6036,
      "det": 6037,
      "items": 6038,
      "ĠLog": 6039,
      "Ġju": 6040,
      "(-": 6041,
      "elta": 6042,
      "Ġincorporating": 6043,
      "Ġpresence": 6044,
      "Ġtouch": 6045,
      "Ġhosp": 6046,
      "unately": 6047,
      "itter": 6048,
      "func": 6049,
      "Ġearn": 6050,
      "ĠDist": 6051,
      "ras": 6052,
      "iration": 6053,
      "Ġperm": 6054,
      "Ġrace": 6055,
      "Ġimplementation": 6056,
      "Ġclick": 6057,
      "Ġpush": 6058,
      "emp": 6059,
      "licht": 6060,
      "ictionary": 6061,
      "server": 6062,
      "Ġmathematics": 6063,
      "Ġdesired": 6064,
      "Acc": 6065,
      "Ġselbst": 6066,
      "BC": 6067,
      "osphere": 6068,
      "ocket": 6069,
      "Ġperspective": 6070,
      "'\\": 6071,
      "Ġexecut": 6072,
      "Ġheavy": 6073,
      "Ġobj": 6074,
      "Ġbelieved": 6075,
      "Ġnative": 6076,
      "begin": 6077,
      "Ġgrav": 6078,
      "Ġnutri": 6079,
      "Ġvacc": 6080,
      "Ġents": 6081,
      "Ġflat": 6082,
      "ĠSa": 6083,
      "Ġsecure": 6084,
      "ĠBest": 6085,
      "poses": 6086,
      "Example": 6087,
      "orical": 6088,
      "Add": 6089,
      "More": 6090,
      "ĠUs": 6091,
      "char": 6092,
      "Ġclosely": 6093,
      "Ġkm": 6094,
      "Ġpair": 6095,
      "ĠHT": 6096,
      "EX": 6097,
      "ĠLa": 6098,
      "Su": 6099,
      "select": 6100,
      "osten": 6101,
      "ĠWater": 6102,
      "ĠDNA": 6103,
      "Ġsuggests": 6104,
      "ĠMicro": 6105,
      "Ġleaving": 6106,
      "Ġedge": 6107,
      "Ġgave": 6108,
      "ĠMa": 6109,
      "Ġtiny": 6110,
      "Ġmo": 6111,
      "Ġletters": 6112,
      "``````": 6113,
      "ĠLine": 6114,
      "which": 6115,
      "entry": 6116,
      "Inst": 6117,
      "Ġlies": 6118,
      ")\\": 6119,
      "orph": 6120,
      "Ġmeant": 6121,
      "richt": 6122,
      "Ġaddressing": 6123,
      "ĠService": 6124,
      "oop": 6125,
      "Ġoptimal": 6126,
      "mode": 6127,
      "apers": 6128,
      "98": 6129,
      "ĠCopyright": 6130,
      "exec": 6131,
      "Ġwen": 6132,
      "Ġelim": 6133,
      "ĠJewish": 6134,
      ".'": 6135,
      "semb": 6136,
      "Ġplane": 6137,
      "ĠRiver": 6138,
      "ĠKeep": 6139,
      "Che": 6140,
      "Ġsports": 6141,
      "Ġselected": 6142,
      "ĠReturns": 6143,
      "Ġjoint": 6144,
      "under": 6145,
      "fail": 6146,
      "Ġingredients": 6147,
      "->": 6148,
      "rest": 6149,
      "Ġgenerated": 6150,
      "Date": 6151,
      "chte": 6152,
      "Ġterrit": 6153,
      "ĠNote": 6154,
      "Ġconservation": 6155,
      "Ġprime": 6156,
      "overs": 6157,
      "Ġupdate": 6158,
      "Ġacceler": 6159,
      "aises": 6160,
      "ĠÃĹ": 6161,
      "ny": 6162,
      "iences": 6163,
      "Ġfiction": 6164,
      "Ġsess": 6165,
      "Ġparallel": 6166,
      "Ġcourt": 6167,
      "Ġexplained": 6168,
      "look": 6169,
      "ierte": 6170,
      ";\":": 6171,
      "Ġgeneration": 6172,
      "ĠExamples": 6173,
      "ĠSpe": 6174,
      "ishing": 6175,
      "Base": 6176,
      "wort": 6177,
      "Ġsession": 6178,
      "war": 6179,
      "orrect": 6180,
      "SC": 6181,
      "Ġisol": 6182,
      "ĠLin": 6183,
      "Ġsyn": 6184,
      "DA": 6185,
      "uh": 6186,
      "Ġpossess": 6187,
      "ouncil": 6188,
      "Ġconflict": 6189,
      "ĠDeutsch": 6190,
      "title": 6191,
      "Ġfruit": 6192,
      "Ġfluid": 6193,
      "Ġraw": 6194,
      "writ": 6195,
      "iosity": 6196,
      "Ġacademic": 6197,
      "Ġconvent": 6198,
      "ĠEngine": 6199,
      "Ġinformed": 6200,
      "Text": 6201,
      "greg": 6202,
      "Ġparticles": 6203,
      "ĠGermany": 6204,
      "Ġfest": 6205,
      "Ġcareful": 6206,
      "ĠProject": 6207,
      "Ġresilience": 6208,
      "Ġcommerc": 6209,
      "That": 6210,
      "ĠNumber": 6211,
      "Ġvs": 6212,
      "ĠDecember": 6213,
      "quare": 6214,
      "Ġspent": 6215,
      "zer": 6216,
      "Ġdram": 6217,
      "ĠWIT": 6218,
      "Ġwinter": 6219,
      "ername": 6220,
      "aint": 6221,
      "Ġparty": 6222,
      "Ġtut": 6223,
      "etch": 6224,
      "Ġmetal": 6225,
      "olf": 6226,
      "ĠEnvironment": 6227,
      "teil": 6228,
      "Ġminor": 6229,
      "Ġvul": 6230,
      "ĠIslam": 6231,
      "Ġcloser": 6232,
      "ĠProblem": 6233,
      "Ġclearly": 6234,
      "ĠList": 6235,
      "ĠUr": 6236,
      "Ġglob": 6237,
      "Ġsaying": 6238,
      "73": 6239,
      "Ġseconds": 6240,
      "Ġidentified": 6241,
      "Ġreligion": 6242,
      "Ã¼t": 6243,
      "Ġmagnetic": 6244,
      "Ġerst": 6245,
      "ij": 6246,
      "ĠPM": 6247,
      "Ġoffering": 6248,
      "soft": 6249,
      "Ġfaster": 6250,
      "Alice": 6251,
      "ĠDevelopment": 6252,
      "74": 6253,
      "Ġwasn": 6254,
      "Ġloop": 6255,
      "onents": 6256,
      "ĠWestern": 6257,
      "times": 6258,
      "udget": 6259,
      "amera": 6260,
      "Inter": 6261,
      "lambda": 6262,
      "ĠĠĠĠĠĠĠĠĠĠĠĠĠĠ": 6263,
      "Ġdisorders": 6264,
      "Ġapart": 6265,
      "product": 6266,
      "rays": 6267,
      "EC": 6268,
      "Pr": 6269,
      "Ã¼hr": 6270,
      "appy": 6271,
      "Ġupper": 6272,
      "iled": 6273,
      "Ġ',": 6274,
      "Ġcollege": 6275,
      "Ġrect": 6276,
      "Ġbuildings": 6277,
      "Ġbinary": 6278,
      "ĠLevel": 6279,
      "Ġrecognize": 6280,
      "Ġexcell": 6281,
      "match": 6282,
      "Ġdiscrim": 6283,
      "Ġcenturies": 6284,
      "Sc": 6285,
      "Ġhatte": 6286,
      "Ġmotor": 6287,
      "ĠPhil": 6288,
      "Ġunf": 6289,
      "ĠPresident": 6290,
      "Ġplatforms": 6291,
      "ĠWorks": 6292,
      "Ġmission": 6293,
      "ivating": 6294,
      "Ġtexts": 6295,
      "72": 6296,
      "Ġlooked": 6297,
      "Chapter": 6298,
      "Te": 6299,
      "rate": 6300,
      "zent": 6301,
      "Ġanderen": 6302,
      "Ġhighest": 6303,
      "Ġsmart": 6304,
      "Ġequivalent": 6305,
      "ael": 6306,
      "Ġtrain": 6307,
      "Ġguidelines": 6308,
      "62": 6309,
      "Ġ2004": 6310,
      "Ġdynamics": 6311,
      "sign": 6312,
      "Ġcapable": 6313,
      "ĠSpiel": 6314,
      "road": 6315,
      "Ġmeeting": 6316,
      "ĠWashington": 6317,
      "Ġkle": 6318,
      "cosystem": 6319,
      "Ġbillion": 6320,
      "Ġmoved": 6321,
      "Ġmsg": 6322,
      "Ġsecret": 6323,
      "ĠWelt": 6324,
      "Ġpros": 6325,
      "Ġhidden": 6326,
      "example": 6327,
      "roid": 6328,
      "ĠEmp": 6329,
      "Ġhear": 6330,
      "ĠUnion": 6331,
      "ĠAbs": 6332,
      "ĠBes": 6333,
      "Ĥ¬": 6334,
      "Ġdjango": 6335,
      "Ġdiabetes": 6336,
      "Ġlinks": 6337,
      "Ġspot": 6338,
      "ĠLearning": 6339,
      "Ġbeim": 6340,
      "Ġgrade": 6341,
      "Ġsamples": 6342,
      "but": 6343,
      "ĠGNU": 6344,
      "Ġhop": 6345,
      "Ġtal": 6346,
      "ĠLife": 6347,
      "Ġdivided": 6348,
      "ĠOper": 6349,
      "Ġprepared": 6350,
      "Ġforest": 6351,
      "Ġensures": 6352,
      "Ġappreciation": 6353,
      "bor": 6354,
      "igma": 6355,
      "Ġknew": 6356,
      ")=": 6357,
      "ucht": 6358,
      "Ġanxiety": 6359,
      "nam": 6360,
      "Ġchart": 6361,
      "Ġtruly": 6362,
      "asion": 6363,
      "Ġclassroom": 6364,
      "Ġguess": 6365,
      "arter": 6366,
      "Ġmel": 6367,
      "burg": 6368,
      "Ġrelatively": 6369,
      "ĠSun": 6370,
      "61": 6371,
      "ĠStep": 6372,
      "ĠRad": 6373,
      "Ġganz": 6374,
      "Ġstock": 6375,
      "ĠHouse": 6376,
      "hÃ¶": 6377,
      "Before": 6378,
      "ivation": 6379,
      "Ġneue": 6380,
      "ensional": 6381,
      "Ġtemperatures": 6382,
      "zy": 6383,
      "isher": 6384,
      "ĠMenschen": 6385,
      "PT": 6386,
      "Many": 6387,
      "ATE": 6388,
      "Ġliquid": 6389,
      "Ġparticipants": 6390,
      "$.": 6391,
      "nte": 6392,
      "ALL": 6393,
      "conf": 6394,
      "plicated": 6395,
      "using": 6396,
      "Ġpurposes": 6397,
      "}{\\": 6398,
      "Ġpregn": 6399,
      "Class": 6400,
      "ologists": 6401,
      "Ġincredible": 6402,
      "Ġraised": 6403,
      "Ġdiscussions": 6404,
      "81": 6405,
      "Ġmouth": 6406,
      "Ġbroader": 6407,
      "Ġfather": 6408,
      "ĠDavid": 6409,
      "Ġcredit": 6410,
      "Ġultimately": 6411,
      "Col": 6412,
      "GB": 6413,
      "Ġtrou": 6414,
      "files": 6415,
      "ĠMathemat": 6416,
      "Ġfloat": 6417,
      "ĠJapanese": 6418,
      "Ġcreates": 6419,
      "ĠĠĠĠĊ": 6420,
      "Ġfacts": 6421,
      "Ġcorresponding": 6422,
      "ĠFact": 6423,
      "Ġencourage": 6424,
      "block": 6425,
      "schaft": 6426,
      "Reg": 6427,
      "ĠĠĠĠĠĠĠĠĠĠĠĠĠĠĠĠĠĠ": 6428,
      "Ġpotentially": 6429,
      "Ġresponsibility": 6430,
      "ĠDirect": 6431,
      "Ġhit": 6432,
      "Ġsolving": 6433,
      "has": 6434,
      "Ġfoster": 6435,
      "Ġfine": 6436,
      "Ġzwei": 6437,
      "Ġseven": 6438,
      "Ġinterested": 6439,
      "Ġauthen": 6440,
      "gang": 6441,
      "Ġunderlying": 6442,
      "Ġcert": 6443,
      "alpha": 6444,
      "ĠKl": 6445,
      "ĠChurch": 6446,
      "ĠIch": 6447,
      "Act": 6448,
      "Ġproperly": 6449,
      "ĠCommon": 6450,
      "anted": 6451,
      "dist": 6452,
      "ynomial": 6453,
      "Ġdisorder": 6454,
      "Ġgarden": 6455,
      "Ġtoken": 6456,
      "Ġmanip": 6457,
      "Ġserved": 6458,
      "Ġserves": 6459,
      "Ġcomputers": 6460,
      "band": 6461,
      "Ġdied": 6462,
      "Exception": 6463,
      "ĠAnalysis": 6464,
      "Ġdirectory": 6465,
      "Ġelectricity": 6466,
      "Ġhair": 6467,
      "Ġsand": 6468,
      "Ġber": 6469,
      "Ġhomes": 6470,
      "Rem": 6471,
      "Ġpretty": 6472,
      "Ġboundaries": 6473,
      "Ġ00": 6474,
      "Ġslightly": 6475,
      "Ġloved": 6476,
      "Ġexperts": 6477,
      "Ġcreativity": 6478,
      "Ġvirtual": 6479,
      "My": 6480,
      "ĠReal": 6481,
      "Ġ70": 6482,
      "ĠGreen": 6483,
      "first": 6484,
      "Ġple": 6485,
      "Ġtox": 6486,
      "Ġje": 6487,
      "Ġquery": 6488,
      "rics": 6489,
      "ĠGreek": 6490,
      "Ġnun": 6491,
      "copy": 6492,
      "ĠSal": 6493,
      "Ġear": 6494,
      "ĠSociety": 6495,
      "Ġexploration": 6496,
      "inant": 6497,
      "Ġimpacts": 6498,
      "normal": 6499,
      "asp": 6500,
      "anges": 6501,
      "Ġcombined": 6502,
      "ĠPaul": 6503,
      "aughter": 6504,
      "Ġ..": 6505,
      "Ġcoe": 6506,
      "gery": 6507,
      "Ġnavigate": 6508,
      "Ġeigen": 6509,
      "ĠVir": 6510,
      "Introduction": 6511,
      "Ġteeth": 6512,
      "Ġtempl": 6513,
      "Ġfabric": 6514,
      "Ġadult": 6515,
      "Ġknowing": 6516,
      "Ġtalking": 6517,
      "Ġ2018": 6518,
      "hy": 6519,
      "heets": 6520,
      "Ġmultipl": 6521,
      "Ġcovered": 6522,
      "enth": 6523,
      "aden": 6524,
      "Ġreaction": 6525,
      "bert": 6526,
      "wind": 6527,
      "Ġexchange": 6528,
      "Ġperiods": 6529,
      "Ġdrugs": 6530,
      "Ġnutrition": 6531,
      "itis": 6532,
      "ĠJe": 6533,
      "ĠCreate": 6534,
      "rank": 6535,
      "ĠÂłĠÂłĠÂłĠÂł": 6536,
      "real": 6537,
      "ĠSar": 6538,
      "race": 6539,
      "width": 6540,
      "Ġremoved": 6541,
      "Ġgrand": 6542,
      "ITY": 6543,
      "={": 6544,
      "Ġeinz": 6545,
      "ĠOnline": 6546,
      "ĠAustralia": 6547,
      "TH": 6548,
      "Ġ'%": 6549,
      "Ġexpressions": 6550,
      "Ġchosen": 6551,
      "Ġshif": 6552,
      "ĠConn": 6553,
      "Ġregional": 6554,
      "othing": 6555,
      "Ġdivision": 6556,
      "uten": 6557,
      "Ġtried": 6558,
      "stract": 6559,
      "Ġvulner": 6560,
      "ĠAD": 6561,
      "pping": 6562,
      "ĠImport": 6563,
      "ĠFrank": 6564,
      "Ġcampaign": 6565,
      "ĠCounty": 6566,
      "Ġdir": 6567,
      "urally": 6568,
      "erving": 6569,
      "ĠPass": 6570,
      "ĠAng": 6571,
      "Ġdetail": 6572,
      "Ã¼h": 6573,
      "number": 6574,
      "Ġpal": 6575,
      "Ġpreviously": 6576,
      "ĠAM": 6577,
      "Ġriver": 6578,
      "Ġmissing": 6579,
      "Ġ35": 6580,
      "Ġ45": 6581,
      "Ġoffice": 6582,
      "Ġdepends": 6583,
      "Ġusage": 6584,
      "property": 6585,
      "bens": 6586,
      "ĠProt": 6587,
      "Ġstaff": 6588,
      "Ġaimed": 6589,
      "heim": 6590,
      "esen": 6591,
      "Ġshowing": 6592,
      "Ġlinked": 6593,
      "sin": 6594,
      "ca": 6595,
      "essen": 6596,
      "ĠMethod": 6597,
      "fall": 6598,
      "Ġgene": 6599,
      "Ġprompt": 6600,
      "Ġcategory": 6601,
      "Ġarm": 6602,
      "ĠSometimes": 6603,
      "ellect": 6604,
      "Ġpp": 6605,
      "ĠIP": 6606,
      "Ġdamit": 6607,
      "cell": 6608,
      "plex": 6609,
      "Ġhelpful": 6610,
      "local": 6611,
      "mas": 6612,
      "ĠBen": 6613,
      "ĠDiv": 6614,
      "Ġalter": 6615,
      "Ġclosed": 6616,
      "xygen": 6617,
      "Ġshift": 6618,
      "oolean": 6619,
      "alid": 6620,
      "Ġimproving": 6621,
      "Ġviolence": 6622,
      "QL": 6623,
      "Ġguidance": 6624,
      "`,": 6625,
      "oices": 6626,
      "Ġhin": 6627,
      "zeug": 6628,
      "Ġwaves": 6629,
      "ĠMem": 6630,
      "inding": 6631,
      "Ġque": 6632,
      "Ġscre": 6633,
      "ĠDig": 6634,
      "ĠHuman": 6635,
      "Ġselection": 6636,
      "std": 6637,
      "ĠExample": 6638,
      "Ġarrang": 6639,
      "Ġalcohol": 6640,
      "Ġbaby": 6641,
      "Ġstarts": 6642,
      "Ġhttps": 6643,
      "ĠJul": 6644,
      "owBox": 6645,
      "Ġdatabase": 6646,
      "Ġholds": 6647,
      "71": 6648,
      "Ġspring": 6649,
      "Ġgesch": 6650,
      "essor": 6651,
      "Ġmilk": 6652,
      "Ġamounts": 6653,
      "Ġinnovation": 6654,
      "Ġdoll": 6655,
      "Ã¤ft": 6656,
      "------------": 6657,
      "'d": 6658,
      "project": 6659,
      "ville": 6660,
      "sequently": 6661,
      "Ġscholars": 6662,
      "Ġwidely": 6663,
      "Ġhuge": 6664,
      "ourses": 6665,
      "Id": 6666,
      "top": 6667,
      "Ġcast": 6668,
      "ida": 6669,
      "Ġsurvey": 6670,
      "ixture": 6671,
      "Ġgod": 6672,
      "oted": 6673,
      "Ġestimate": 6674,
      "iÃŁ": 6675,
      "Ġannual": 6676,
      "Ġplayers": 6677,
      "sys": 6678,
      "orrow": 6679,
      "Ġowners": 6680,
      "2012": 6681,
      "Ġproposed": 6682,
      "Ġeinfach": 6683,
      "Ġlayers": 6684,
      "Ġ^": 6685,
      "lig": 6686,
      "Ġcircumst": 6687,
      "rons": 6688,
      "cknow": 6689,
      "pred": 6690,
      "Ġrul": 6691,
      "Ġfilm": 6692,
      "Ġengagement": 6693,
      "Ġconsistent": 6694,
      "onent": 6695,
      "PR": 6696,
      "fo": 6697,
      "Ġben": 6698,
      "ĠBuild": 6699,
      "Ġ2020": 6700,
      "Ġecosystem": 6701,
      "Ġcooking": 6702,
      "ultane": 6703,
      "lements": 6704,
      "rieved": 6705,
      "itud": 6706,
      "ekt": 6707,
      "displaystyle": 6708,
      "Ġocean": 6709,
      "Ġexception": 6710,
      "mun": 6711,
      "ĠVis": 6712,
      "weight": 6713,
      "iant": 6714,
      "Ġohne": 6715,
      "ester": 6716,
      "Ġpictures": 6717,
      "Ġwindow": 6718,
      "Ġtissue": 6719,
      "Ġprove": 6720,
      "ĠIns": 6721,
      "Ġalt": 6722,
      "ischer": 6723,
      "Ġscore": 6724,
      "Ġorigin": 6725,
      "Ġcro": 6726,
      "itness": 6727,
      "Ġcommercial": 6728,
      "Ġca": 6729,
      "ulum": 6730,
      "Ġinvestment": 6731,
      "Ġ//": 6732,
      "oom": 6733,
      "anned": 6734,
      "Ġrecip": 6735,
      "ansion": 6736,
      "Ġregister": 6737,
      "Ġsocietal": 6738,
      "Ġinteractions": 6739,
      "ĠIhre": 6740,
      "Ġskill": 6741,
      "reich": 6742,
      "Ã¡": 6743,
      "93": 6744,
      "Ġfirm": 6745,
      "ĠBay": 6746,
      "Ġmeat": 6747,
      "lik": 6748,
      "Ġvoice": 6749,
      "Ġoperating": 6750,
      "ume": 6751,
      "lers": 6752,
      "Ġaware": 6753,
      "Ġkid": 6754,
      "auth": 6755,
      "Ġestimated": 6756,
      "Ġdocuments": 6757,
      "Ġtrends": 6758,
      "ĠStart": 6759,
      "Ġasking": 6760,
      "lung": 6761,
      "ĠDu": 6762,
      "ĠJames": 6763,
      "Ġmuscle": 6764,
      "Ġfailure": 6765,
      "ĠWho": 6766,
      "ĠMac": 6767,
      "oves": 6768,
      "Ġindustrial": 6769,
      "Ġdepression": 6770,
      "ĠFood": 6771,
      "arant": 6772,
      "Ġswitch": 6773,
      "Ġadop": 6774,
      "pop": 6775,
      "geben": 6776,
      "iox": 6777,
      "Ġcurve": 6778,
      "Ġperformed": 6779,
      "query": 6780,
      "Ġenables": 6781,
      "Ġsell": 6782,
      "Ġabilities": 6783,
      "Ġdrive": 6784,
      "Ġphysics": 6785,
      "Ġ},": 6786,
      ")),": 6787,
      "ichtig": 6788,
      "Ġpassword": 6789,
      "Ġmale": 6790,
      "ahre": 6791,
      "cache": 6792,
      "pload": 6793,
      "Ġparties": 6794,
      "ART": 6795,
      "ĠEvery": 6796,
      "Ġcareer": 6797,
      "Ġspeech": 6798,
      "Ġaid": 6799,
      "orough": 6800,
      "ĠMiddle": 6801,
      "Ġconsult": 6802,
      "Ġimmune": 6803,
      "','": 6804,
      "Ġprogramming": 6805,
      "ificial": 6806,
      "Ġcuriosity": 6807,
      "Ġmedium": 6808,
      "Ġrevolution": 6809,
      "PA": 6810,
      "Ġfoundation": 6811,
      "Ġmeasured": 6812,
      "cast": 6813,
      "nes": 6814,
      "ĠCollege": 6815,
      "Ġsymbols": 6816,
      "Node": 6817,
      "Ġreferred": 6818,
      "sible": 6819,
      "They": 6820,
      "ka": 6821,
      "oyal": 6822,
      "Ġconstraint": 6823,
      "ĠTop": 6824,
      "ĠBund": 6825,
      "Ġdiscovery": 6826,
      "IB": 6827,
      "Ġtaught": 6828,
      "aker": 6829,
      "axis": 6830,
      "$,": 6831,
      "pet": 6832,
      "Ġsupporting": 6833,
      "Ġradio": 6834,
      "Ġdrop": 6835,
      "Ġindigenous": 6836,
      "Ġdedicated": 6837,
      "well": 6838,
      "inner": 6839,
      "Ġdecades": 6840,
      "Ġmultip": 6841,
      "Read": 6842,
      "hist": 6843,
      "esh": 6844,
      "Ġinches": 6845,
      "ĠValueError": 6846,
      "Ġrig": 6847,
      "Ġchain": 6848,
      "amen": 6849,
      "Ġetwas": 6850,
      "OF": 6851,
      "Ġtherm": 6852,
      "ĠMot": 6853,
      "Ġcalls": 6854,
      "SA": 6855,
      "Ġassessment": 6856,
      "*-": 6857,
      "itte": 6858,
      "ĠTur": 6859,
      "Ġplastic": 6860,
      "Ġconsists": 6861,
      "Raises": 6862,
      "ĠMedic": 6863,
      "Ġclinical": 6864,
      "Ġbiet": 6865,
      "icians": 6866,
      "olar": 6867,
      "Ġremaining": 6868,
      "Ġ500": 6869,
      "ĠANY": 6870,
      "stÃ¤nd": 6871,
      "Ġfinden": 6872,
      "Ġlegisl": 6873,
      "vements": 6874,
      "ĠJun": 6875,
      "Ġwurden": 6876,
      "VER": 6877,
      "bes": 6878,
      "Ġthick": 6879,
      "Ġneut": 6880,
      "Model": 6881,
      "ĠExt": 6882,
      "ĠSecond": 6883,
      "Ġconfidence": 6884,
      "kommen": 6885,
      "Pre": 6886,
      "Ġjetzt": 6887,
      "ĠPers": 6888,
      "ky": 6889,
      "Ġsufficient": 6890,
      "Ġempathy": 6891,
      "ĠJahren": 6892,
      "free": 6893,
      "Ġbehaviors": 6894,
      "Ġcompare": 6895,
      "Part": 6896,
      "Ġtriangle": 6897,
      "Ġreports": 6898,
      "ipping": 6899,
      "course": 6900,
      "Ġmanaging": 6901,
      "Ġrepresented": 6902,
      "Ġabsolute": 6903,
      "Ġchurch": 6904,
      "ifications": 6905,
      "mail": 6906,
      "Ġfant": 6907,
      "III": 6908,
      "Ġgeht": 6909,
      "Ġgained": 6910,
      "ä¸": 6911,
      "ĠLET": 6912,
      "Ġanalyze": 6913,
      "Ġderived": 6914,
      "ĠGroup": 6915,
      "hend": 6916,
      "Ġreached": 6917,
      "Ġ2003": 6918,
      "ĠLike": 6919,
      "ĠVari": 6920,
      "Ġcred": 6921,
      "Ġmeaningful": 6922,
      "ĠTable": 6923,
      "ĠFOR": 6924,
      "Ġvegetables": 6925,
      "ĠFebruary": 6926,
      "Ġcognitive": 6927,
      "Ġsuitable": 6928,
      "ĠKnow": 6929,
      "pers": 6930,
      "istical": 6931,
      "Ġakt": 6932,
      "OC": 6933,
      "Ġfort": 6934,
      "Ġstored": 6935,
      "Ġrank": 6936,
      "Ġremark": 6937,
      "Ġsplit": 6938,
      "ÃĹ": 6939,
      "Ġmatters": 6940,
      "ĠWelcome": 6941,
      "Ġmarker": 6942,
      "Ġassume": 6943,
      "xml": 6944,
      "ĠTeil": 6945,
      "Ser": 6946,
      "Ġwire": 6947,
      "particle": 6948,
      "ĠHy": 6949,
      "Last": 6950,
      "Ġhyper": 6951,
      "Ġcandid": 6952,
      "azu": 6953,
      "Ġinfo": 6954,
      "points": 6955,
      "case": 6956,
      "Ġtrib": 6957,
      "reib": 6958,
      "Ġliber": 6959,
      "Ġwealth": 6960,
      "Ġtables": 6961,
      "Ġintelligence": 6962,
      "{{": 6963,
      "ĠStudy": 6964,
      "ĠNon": 6965,
      "Ġexciting": 6966,
      "Log": 6967,
      "Ġdownload": 6968,
      "Ġcalculated": 6969,
      "Ġradiation": 6970,
      "Ġsubjects": 6971,
      "><": 6972,
      "Trans": 6973,
      "riers": 6974,
      "ometric": 6975,
      "Ġdynamic": 6976,
      "MA": 6977,
      "Ġcards": 6978,
      "Ġbow": 6979,
      "ĠMain": 6980,
      "Ġarticles": 6981,
      "Ġformal": 6982,
      "ontal": 6983,
      "what": 6984,
      "Ġenth": 6985,
      "Ġinsect": 6986,
      "ĠLETTER": 6987,
      "92": 6988,
      "operation": 6989,
      "ĠFrance": 6990,
      "assertTrue": 6991,
      "Ġelectrical": 6992,
      "ĠLie": 6993,
      "fn": 6994,
      "system": 6995,
      "Ġsubstant": 6996,
      "mock": 6997,
      "Ġimplications": 6998,
      "Ġmajority": 6999,
      "world": 7000,
      "Ġsq": 7001,
      "ĠMart": 7002,
      "session": 7003,
      "true": 7004,
      "Ġhappy": 7005,
      "Ġwidth": 7006,
      "FI": 7007,
      "Hand": 7008,
      "ichte": 7009,
      "onders": 7010,
      "Ġzwischen": 7011,
      "Sim": 7012,
      "ĠMass": 7013,
      "ollen": 7014,
      "Ġdemoc": 7015,
      "Ġtreated": 7016,
      "Ġnodes": 7017,
      "aupt": 7018,
      "Ġrou": 7019,
      "theta": 7020,
      "Ġiron": 7021,
      "ĠTitle": 7022,
      "Ġlogic": 7023,
      "Ġadvantage": 7024,
      "present": 7025,
      "Ġrealized": 7026,
      "Ġrenew": 7027,
      "Ġhundred": 7028,
      "ĠIde": 7029,
      "ĠSpanish": 7030,
      "ondern": 7031,
      "only": 7032,
      "Ġpun": 7033,
      "ĠReview": 7034,
      "unte": 7035,
      "Ġalgorithms": 7036,
      "assertRaises": 7037,
      "delete": 7038,
      "ulating": 7039,
      "Ġindicate": 7040,
      "Ġstronger": 7041,
      "Ġfeedback": 7042,
      "inity": 7043,
      "Ġblocks": 7044,
      "Ġgoods": 7045,
      "ĠAssociation": 7046,
      "ims": 7047,
      "ĠStre": 7048,
      "wert": 7049,
      "replace": 7050,
      "ĠĠĠĠĠĠĠĠĊ": 7051,
      "Ġproof": 7052,
      "ATION": 7053,
      "Ġ2019": 7054,
      "Ġdecide": 7055,
      "Ġturns": 7056,
      "pf": 7057,
      "Ġsche": 7058,
      "tschaft": 7059,
      "ait": 7060,
      "Ġexistence": 7061,
      "oken": 7062,
      "Ġshar": 7063,
      "ouble": 7064,
      "ĠEnergy": 7065,
      "alog": 7066,
      "Ġrain": 7067,
      "EG": 7068,
      "bel": 7069,
      "halb": 7070,
      "Ġsupports": 7071,
      "Ge": 7072,
      "Ġsud": 7073,
      "Ġdoch": 7074,
      "Ġdesigns": 7075,
      "Ġobst": 7076,
      "Ġpersist": 7077,
      "Ġnuclear": 7078,
      "Ġmonitoring": 7079,
      "ugin": 7080,
      "Ġgold": 7081,
      "Ġblog": 7082,
      "Ġprocedure": 7083,
      "fang": 7084,
      "Ġchronic": 7085,
      "Ġmanif": 7086,
      "Ġ###": 7087,
      "Ġoxygen": 7088,
      "eless": 7089,
      "ĠQue": 7090,
      "ĠBudd": 7091,
      "eli": 7092,
      "ĠKore": 7093,
      "amily": 7094,
      "Ġunexpected": 7095,
      "Ġoffered": 7096,
      "ĠUSA": 7097,
      "Ġstation": 7098,
      "Ġdepart": 7099,
      "ĠWindows": 7100,
      "Through": 7101,
      "Ġfraction": 7102,
      "debug": 7103,
      "Ġthanks": 7104,
      "FA": 7105,
      "ĠArab": 7106,
      "abling": 7107,
      "ĠRober": 7108,
      "Ġdiss": 7109,
      "Ġmeasurement": 7110,
      "Ġalongside": 7111,
      "gal": 7112,
      "Ġfrag": 7113,
      "Ġformation": 7114,
      "Ġreleased": 7115,
      "Ġsag": 7116,
      "Ġpul": 7117,
      "ĠBank": 7118,
      "show": 7119,
      "Ġcomplexity": 7120,
      "Ġdiscussed": 7121,
      "ĠCurrent": 7122,
      "ideos": 7123,
      "Ġdiscipl": 7124,
      "ĠMuseum": 7125,
      "^{\\": 7126,
      "Ġprices": 7127,
      "Ġfailed": 7128,
      "Ġemissions": 7129,
      "Ġcouldn": 7130,
      "Ġcollective": 7131,
      "ĠĠĠĠĠĠĠĠĠĠĠĠĠĠĠĠĠĠĠĠĠĠĠĠĠĠĠĠĠĠĠ": 7132,
      "Ġkeys": 7133,
      "(*": 7134,
      "Ġpark": 7135,
      "ĠRich": 7136,
      "Ġsalt": 7137,
      "ini": 7138,
      "Ġspend": 7139,
      "Ġatmosphere": 7140,
      "Ġband": 7141,
      "racy": 7142,
      "Ġpackage": 7143,
      "Ġahead": 7144,
      "ria": 7145,
      "Ġnull": 7146,
      "erate": 7147,
      "actions": 7148,
      "umps": 7149,
      "Ġmyth": 7150,
      "ĠJoh": 7151,
      "Ġaccuracy": 7152,
      ",'": 7153,
      "Ġneuen": 7154,
      "ĠWilliam": 7155,
      ")*": 7156,
      "Ġyouth": 7157,
      "ĠDel": 7158,
      "ĠText": 7159,
      "Ġrecommended": 7160,
      "Ġbeauty": 7161,
      "Ġweit": 7162,
      "Ġgrad": 7163,
      "Ġacknow": 7164,
      "stood": 7165,
      "event": 7166,
      "issen": 7167,
      "ĠMean": 7168,
      "Ġexercises": 7169,
      "ĠDaten": 7170,
      "ologist": 7171,
      "Ġintricate": 7172,
      "Ġunknown": 7173,
      "Ġtensor": 7174,
      "Ġjobs": 7175,
      "94": 7176,
      "err": 7177,
      "Ġcolle": 7178,
      "Ġresponses": 7179,
      "ĠPoint": 7180,
      "Ġinterval": 7181,
      "Ġobtained": 7182,
      "rian": 7183,
      "Ġextremely": 7184,
      "Ġintellect": 7185,
      "Ġnations": 7186,
      "Ġintended": 7187,
      "Ġcircumstances": 7188,
      "big": 7189,
      "Ġsondern": 7190,
      "Ġtips": 7191,
      "Ġwants": 7192,
      "Ġseiner": 7193,
      "random": 7194,
      "ĠDespite": 7195,
      "Ġconducted": 7196,
      "Ġexcellent": 7197,
      "Ġneighbor": 7198,
      "beiten": 7199,
      "ĠName": 7200,
      "ears": 7201,
      "Ġadvice": 7202,
      "Dr": 7203,
      "Ġseit": 7204,
      "Ġ36": 7205,
      "ette": 7206,
      "unction": 7207,
      "ĠCr": 7208,
      "ĠHappy": 7209,
      "ĠBus": 7210,
      "tenance": 7211,
      "Ġethical": 7212,
      "Ġtechnical": 7213,
      "ĠBerlin": 7214,
      "rastructure": 7215,
      "Ġsudden": 7216,
      "[-": 7217,
      "ĠUK": 7218,
      "aks": 7219,
      "Ġstrengthen": 7220,
      "zu": 7221,
      "erd": 7222,
      "ĠAp": 7223,
      "color": 7224,
      "Ġbereits": 7225,
      "etry": 7226,
      "Ġagreed": 7227,
      "Ġminer": 7228,
      "Ġcurr": 7229,
      "Ġlogging": 7230,
      "Ġemerging": 7231,
      "changed": 7232,
      "Ġcommunicate": 7233,
      "sw": 7234,
      "Ġtum": 7235,
      "Ġgem": 7236,
      "except": 7237,
      "Once": 7238,
      "Ã¼ssen": 7239,
      "util": 7240,
      "Ġvent": 7241,
      "pling": 7242,
      "asy": 7243,
      "Ġrapidly": 7244,
      "Ġfill": 7245,
      "Ġgrid": 7246,
      "mann": 7247,
      "Ð¾": 7248,
      "ĠEst": 7249,
      "ruck": 7250,
      "ĠShow": 7251,
      "ĠEnc": 7252,
      "ĠSpace": 7253,
      "Ass": 7254,
      "IO": 7255,
      "RA": 7256,
      "Ġ1000": 7257,
      "ago": 7258,
      "fortunately": 7259,
      "Ġmixed": 7260,
      "https": 7261,
      "erem": 7262,
      "Ġphone": 7263,
      "Ġinspired": 7264,
      "Ġtreatments": 7265,
      "unter": 7266,
      "rows": 7267,
      "aste": 7268,
      "scale": 7269,
      "iki": 7270,
      "Ġeggs": 7271,
      "search": 7272,
      "CON": 7273,
      "Ġhypothes": 7274,
      "ĠGeorge": 7275,
      "Ġcutting": 7276,
      "Our": 7277,
      "Ġprocedures": 7278,
      "la": 7279,
      "Ġ<=": 7280,
      "Ġlabels": 7281,
      "arbeit": 7282,
      "ceived": 7283,
      "overty": 7284,
      "Ġkinds": 7285,
      "Ġfro": 7286,
      "Ġuniverse": 7287,
      "Ġcarried": 7288,
      "Ġpip": 7289,
      "Ġobvious": 7290,
      "ĠTechnology": 7291,
      "ĠIsland": 7292,
      "bild": 7293,
      "Ġvess": 7294,
      "Ġmechanisms": 7295,
      "Ġlots": 7296,
      "ften": 7297,
      "ĠFlor": 7298,
      "Ġconsidering": 7299,
      "ienst": 7300,
      "ĠNOT": 7301,
      "ĠPage": 7302,
      "rupp": 7303,
      "âĶ": 7304,
      "ĠTex": 7305,
      "Ġgovernments": 7306,
      "ĠCD": 7307,
      "keiten": 7308,
      "Gener": 7309,
      "Ġwarn": 7310,
      "omic": 7311,
      "Ġposit": 7312,
      "Ġtells": 7313,
      "Ġconversion": 7314,
      "Finally": 7315,
      "king": 7316,
      "esser": 7317,
      "ĠFort": 7318,
      "Ġadventure": 7319,
      "Ġ-*-": 7320,
      "ĠMiss": 7321,
      "Ġparams": 7322,
      "Ġmachen": 7323,
      "how": 7324,
      "Ġrelax": 7325,
      "Am": 7326,
      "Ġappar": 7327,
      "ĠRef": 7328,
      "ĠApplic": 7329,
      "ĠAnother": 7330,
      "iday": 7331,
      "aming": 7332,
      "ĠInformationen": 7333,
      "Ġwisdom": 7334,
      "cip": 7335,
      "Ġinstances": 7336,
      "conomic": 7337,
      "Ġrestrict": 7338,
      "ycl": 7339,
      "Ġsignals": 7340,
      "Ġaffects": 7341,
      "Ġpolitics": 7342,
      "Ġprepare": 7343,
      "ĠNews": 7344,
      "Ġlisten": 7345,
      "Ġbreast": 7346,
      "ker": 7347,
      "dt": 7348,
      "Ġacts": 7349,
      "Ġmillions": 7350,
      "Ġship": 7351,
      "Ġja": 7352,
      "Ã¤re": 7353,
      "TestCase": 7354,
      "ĠConf": 7355,
      "graph": 7356,
      "amps": 7357,
      "static": 7358,
      "Ġextreme": 7359,
      "Ġremained": 7360,
      "ittest": 7361,
      "Ġfilename": 7362,
      "Ġfix": 7363,
      "called": 7364,
      "Ġantib": 7365,
      "AME": 7366,
      "Ġevaluate": 7367,
      "Ð°": 7368,
      "Ġ'\\": 7369,
      "Ġcustomers": 7370,
      "Ġlimitations": 7371,
      "ĠQuestion": 7372,
      "Ġopposite": 7373,
      "ĠWhe": 7374,
      "Ġpassion": 7375,
      "Ġstatistics": 7376,
      "Ġinsurance": 7377,
      "xxxx": 7378,
      "oma": 7379,
      "rick": 7380,
      "amma": 7381,
      "Ġdeeply": 7382,
      "lab": 7383,
      "Ġcolumns": 7384,
      "Note": 7385,
      "Ġbutter": 7386,
      "Ġseeds": 7387,
      "ĠBook": 7388,
      "ĠProv": 7389,
      "Ġexplicit": 7390,
      "Ġbrief": 7391,
      "Ġsimultane": 7392,
      "Ġange": 7393,
      "rolog": 7394,
      "Ġregularly": 7395,
      "Ġinteraction": 7396,
      "Ġdiff": 7397,
      "ĠThomas": 7398,
      "gend": 7399,
      "ĠWAR": 7400,
      "ano": 7401,
      "Ġamid": 7402,
      "sen": 7403,
      "Ġ300": 7404,
      "ya": 7405,
      "ĠEnd": 7406,
      "UP": 7407,
      "kte": 7408,
      "wood": 7409,
      "ĠÃľber": 7410,
      "Ġremote": 7411,
      "Ġmarked": 7412,
      "2013": 7413,
      "inem": 7414,
      "enschaft": 7415,
      "Ġrough": 7416,
      "Ġera": 7417,
      "connect": 7418,
      "101": 7419,
      "Ġisland": 7420,
      "ĠGew": 7421,
      "ĠTw": 7422,
      "Ġfacing": 7423,
      "Path": 7424,
      "Ġuid": 7425,
      "Ġstars": 7426,
      "zeich": 7427,
      "Ġancest": 7428,
      "ĠVersion": 7429,
      "Ġcurious": 7430,
      "Ab": 7431,
      "orous": 7432,
      "Ġdenn": 7433,
      "Ġinstrument": 7434,
      "Ġbattle": 7435,
      "Ġdemonstrate": 7436,
      "Ġdimensions": 7437,
      "ĠID": 7438,
      "Ġdestroy": 7439,
      "src": 7440,
      "entlich": 7441,
      "Ġ::": 7442,
      "estions": 7443,
      "Ġnearby": 7444,
      "ĠRetrieved": 7445,
      "Of": 7446,
      "izz": 7447,
      "bere": 7448,
      "Ġviele": 7449,
      "Ġplayer": 7450,
      "Ġmachines": 7451,
      "ĠJahre": 7452,
      "$\\": 7453,
      "ponse": 7454,
      "astern": 7455,
      "Ġinterface": 7456,
      "Ġreduction": 7457,
      "Ġneu": 7458,
      "ĠModel": 7459,
      "Ġneuro": 7460,
      "ĠItal": 7461,
      "Ġliterary": 7462,
      "uits": 7463,
      "script": 7464,
      "icism": 7465,
      "eten": 7466,
      "Ġheritage": 7467,
      "State": 7468,
      "Ġcompass": 7469,
      "Ġdb": 7470,
      "stack": 7471,
      "Ġcomprehensive": 7472,
      "rack": 7473,
      "ĠĠĠĠĠĠĠĠĠĠĠĠĠĠĠĠĠ": 7474,
      "Ġcris": 7475,
      "itors": 7476,
      "ĠCare": 7477,
      "mic": 7478,
      "ditional": 7479,
      "Ġpositions": 7480,
      "Ġangles": 7481,
      "âĪĴ": 7482,
      "rot": 7483,
      "ulf": 7484,
      "Next": 7485,
      "Ġclaims": 7486,
      "BN": 7487,
      "author": 7488,
      "ĠDeutschland": 7489,
      "Ġcategories": 7490,
      "ki": 7491,
      "Ġmigr": 7492,
      "rant": 7493,
      "ĠCouncil": 7494,
      "oking": 7495,
      "Ġflowers": 7496,
      "ĠIntegr": 7497,
      "Ġinternet": 7498,
      "Ġsuccessfully": 7499,
      "bed": 7500,
      "ĠGood": 7501,
      "ierten": 7502,
      ")+": 7503,
      "ĠGrund": 7504,
      "bas": 7505,
      "Ġcommunic": 7506,
      "Ġrelation": 7507,
      "MP": 7508,
      "ĠĠĠĠĠĠĠĠĠĠĠĠĠĠĠĠĠĠĠĠĠ": 7509,
      "Ġrepresenting": 7510,
      "Ġeveryday": 7511,
      "Ġopening": 7512,
      "Ġsales": 7513,
      "Ġcub": 7514,
      "ĠAsia": 7515,
      "Ġspeaking": 7516,
      "best": 7517,
      "Ġpowers": 7518,
      "Ġmm": 7519,
      "Ġorganic": 7520,
      "Ġsuggested": 7521,
      "Ġcatch": 7522,
      "Ġauthority": 7523,
      "Ġdangerous": 7524,
      "Ġseed": 7525,
      "Ġcls": 7526,
      "ĠVert": 7527,
      "ĠCongress": 7528,
      "ibraries": 7529,
      "KE": 7530,
      "auer": 7531,
      "ĠEss": 7532,
      "Ġleadership": 7533,
      "Ġphr": 7534,
      "ĠDen": 7535,
      "Ġhearing": 7536,
      "Ġdriving": 7537,
      ")^": 7538,
      "Ġflag": 7539,
      "Ġdrawn": 7540,
      "QU": 7541,
      "strip": 7542,
      "rule": 7543,
      "91": 7544,
      "Ġcreatures": 7545,
      "Ġfruits": 7546,
      "Per": 7547,
      "Ġthorough": 7548,
      "igung": 7549,
      "unting": 7550,
      "Ġembark": 7551,
      "Ġcars": 7552,
      "Ġbright": 7553,
      "Ġkl": 7554,
      "ĠOld": 7555,
      "make": 7556,
      "Ġ\\\\": 7557,
      "Ġlimits": 7558,
      "description": 7559,
      "Ġbegins": 7560,
      "Ver": 7561,
      "reds": 7562,
      "Ġorient": 7563,
      "Ġparser": 7564,
      "Ġ((": 7565,
      "align": 7566,
      "ancer": 7567,
      "Ġoccurred": 7568,
      "Ich": 7569,
      "ĠDa": 7570,
      "ĠMount": 7571,
      "Ġstrict": 7572,
      "Ġkg": 7573,
      "cp": 7574,
      "sor": 7575,
      "Ġfarmers": 7576,
      "Ġtap": 7577,
      "').": 7578,
      "zie": 7579,
      "Ġpartner": 7580,
      "Ġpaths": 7581,
      "Ġframework": 7582,
      "ĠSen": 7583,
      "fra": 7584,
      "allow": 7585,
      "ðĿĲ": 7586,
      "Ġbudget": 7587,
      "Ġstick": 7588,
      "ĠMary": 7589,
      "Ġcorpor": 7590,
      "Ġcup": 7591,
      "Ġtransformation": 7592,
      "Ġelev": 7593,
      "ĠâĨĴ": 7594,
      "Ġnoise": 7595,
      "Ġprinciple": 7596,
      "atever": 7597,
      "Ġ>=": 7598,
      "settings": 7599,
      "Ġbrand": 7600,
      "omin": 7601,
      "Ġwhom": 7602,
      "organ": 7603,
      "Ġnoticed": 7604,
      "di": 7605,
      "atial": 7606,
      "Ġforced": 7607,
      "Ġ2002": 7608,
      "Ġarchitecture": 7609,
      "Ġmoral": 7610,
      "Ġshop": 7611,
      "Ġdieses": 7612,
      "ĠLast": 7613,
      "ĠwÃ¼r": 7614,
      "Ġinsight": 7615,
      "Ġlocations": 7616,
      "Ġcorrectly": 7617,
      "agers": 7618,
      "Ġafford": 7619,
      "address": 7620,
      "else": 7621,
      "ĠFinally": 7622,
      "Ġelectron": 7623,
      "ĠSupp": 7624,
      "patch": 7625,
      "Ġrealm": 7626,
      "ented": 7627,
      "ĠLook": 7628,
      "Ġagree": 7629,
      "Object": 7630,
      "arsh": 7631,
      "Ġstyles": 7632,
      "next": 7633,
      "ĠFamil": 7634,
      "Ġtherap": 7635,
      "Ġath": 7636,
      "ĠPC": 7637,
      "Ġwalking": 7638,
      "Ġdogs": 7639,
      "zw": 7640,
      "ĠRights": 7641,
      "inv": 7642,
      "Ġinsert": 7643,
      "Ġinjury": 7644,
      "Ġdabei": 7645,
      "cken": 7646,
      "=(": 7647,
      "ĠCap": 7648,
      "stop": 7649,
      "Ġwaren": 7650,
      "Ġalike": 7651,
      "Ġtechnological": 7652,
      "matrix": 7653,
      "Ġstret": 7654,
      "ado": 7655,
      "Ġbone": 7656,
      "Ġstruggle": 7657,
      "ĠInit": 7658,
      "osa": 7659,
      "ĠIhnen": 7660,
      "Ġinterview": 7661,
      "nic": 7662,
      "Ġprev": 7663,
      "datetime": 7664,
      "uÃŁer": 7665,
      "Check": 7666,
      "tk": 7667,
      "ocab": 7668,
      "Ġquad": 7669,
      "Ġregulations": 7670,
      "Ġpercentage": 7671,
      "Ġinstruction": 7672,
      "User": 7673,
      "Ġexpectations": 7674,
      "null": 7675,
      "ĠFall": 7676,
      "Ġsurgery": 7677,
      "Ġcompleted": 7678,
      "Ġgrass": 7679,
      "Ġpull": 7680,
      "ĠDan": 7681,
      "Ġflood": 7682,
      "ĠCentral": 7683,
      "Ġpure": 7684,
      "ĠBob": 7685,
      "Ġremind": 7686,
      "Ġpred": 7687,
      "Ġprofit": 7688,
      "auss": 7689,
      "Ġcriter": 7690,
      "Ġleader": 7691,
      "ĠMaybe": 7692,
      "Under": 7693,
      "rypt": 7694,
      "Ġsections": 7695,
      "oder": 7696,
      "Ġdisapp": 7697,
      "Ġdepict": 7698,
      "task": 7699,
      "ĠAmong": 7700,
      "Ġempower": 7701,
      "TO": 7702,
      "Ġfunctional": 7703,
      "Ġinstructions": 7704,
      "Ġlock": 7705,
      "Ġtrial": 7706,
      "Ġlassen": 7707,
      "Ġaccompl": 7708,
      "rif": 7709,
      "âĢĺ": 7710,
      "CD": 7711,
      "Ġsensitive": 7712,
      "cmd": 7713,
      "claim": 7714,
      "ĠSystems": 7715,
      ")\"": 7716,
      "dule": 7717,
      "Ġtransportation": 7718,
      "Ġcoding": 7719,
      "Ġwww": 7720,
      "Ġassistance": 7721,
      "Ġintegral": 7722,
      "Ġemployees": 7723,
      "Ġlambda": 7724,
      "idents": 7725,
      "Ġintervention": 7726,
      "mbol": 7727,
      "tex": 7728,
      "Ġmanaged": 7729,
      "template": 7730,
      "Ġapplying": 7731,
      "RANT": 7732,
      "riculum": 7733,
      "Ġwaters": 7734,
      "Ġfloor": 7735,
      "nel": 7736,
      "Ðµ": 7737,
      "Ġbutton": 7738,
      "Ġ```": 7739,
      "olle": 7740,
      "Ġtraum": 7741,
      "Ġexpressed": 7742,
      "Ġharmful": 7743,
      "Ġconcentration": 7744,
      "ĠmÃ¼ssen": 7745,
      "Ġandere": 7746,
      "Ġenabling": 7747,
      "prefix": 7748,
      "ĠOrig": 7749,
      "Ġgirls": 7750,
      "Ġpuzz": 7751,
      "Ġsky": 7752,
      "ĠFace": 7753,
      "Ġnoted": 7754,
      "Ġtaste": 7755,
      "ĠPolit": 7756,
      "Can": 7757,
      "wir": 7758,
      "riage": 7759,
      "serve": 7760,
      "Ġobservations": 7761,
      "Ġdiscrimination": 7762,
      "Ġstability": 7763,
      "iler": 7764,
      "Ġsnow": 7765,
      "ĠHen": 7766,
      "lang": 7767,
      "Ġrely": 7768,
      "ĠSon": 7769,
      "vals": 7770,
      "non": 7771,
      "Ġjson": 7772,
      "Ġbranch": 7773,
      "Ġinfrastructure": 7774,
      "Ġessay": 7775,
      "Sp": 7776,
      "Ġwriters": 7777,
      "Ġsummary": 7778,
      "metric": 7779,
      "Ġkept": 7780,
      "Ġindicates": 7781,
      "vance": 7782,
      "Ġnu": 7783,
      "Ġersten": 7784,
      "Ġshell": 7785,
      "Ġmoves": 7786,
      "Ġwaiting": 7787,
      "Lesson": 7788,
      "eller": 7789,
      "ĠControl": 7790,
      "plete": 7791,
      "Ġintegration": 7792,
      "Ġsocieties": 7793,
      "Ġoperator": 7794,
      "Ġslowly": 7795,
      "lÃ¤": 7796,
      "chten": 7797,
      "Ġlose": 7798,
      "ĠIndigenous": 7799,
      "Ġcontrolled": 7800,
      "Ġemployed": 7801,
      "Ġ\",": 7802,
      "Ġlatest": 7803,
      "sort": 7804,
      "ĠSarah": 7805,
      "ĠAlice": 7806,
      "ĠRussian": 7807,
      "ĠĠĠĠĠĠĠĠĠĠĠĠĠĠĠĠĠĠĠĠ": 7808,
      "eting": 7809,
      "ĠEU": 7810,
      "Ġmostly": 7811,
      "Ġphotograph": 7812,
      "ĠMont": 7813,
      "Ġpaid": 7814,
      "Ġforget": 7815,
      "ĠDate": 7816,
      "Ġstanding": 7817,
      "asse": 7818,
      "ĠMulti": 7819,
      "ĠChildren": 7820,
      "aser": 7821,
      "ĠAny": 7822,
      "arity": 7823,
      "Ġstands": 7824,
      "ads": 7825,
      "Ġentirely": 7826,
      "Ġrepeated": 7827,
      "Ġtransition": 7828,
      "Ġpolynomial": 7829,
      "Stud": 7830,
      "Ġmuscles": 7831,
      "bind": 7832,
      "ĠWARRANT": 7833,
      "Ġnerv": 7834,
      "Ġdigit": 7835,
      "Ġmoments": 7836,
      "ĠGovernment": 7837,
      "ĠLong": 7838,
      "ĠGal": 7839,
      "aper": 7840,
      "Ġwalls": 7841,
      "Ġeig": 7842,
      "Ġnumpy": 7843,
      "ĠSM": 7844,
      "Ġdetailed": 7845,
      "network": 7846,
      "Ġmeters": 7847,
      "Ġpollution": 7848,
      "ritt": 7849,
      "Ġsentence": 7850,
      "Ġdecimal": 7851,
      "RL": 7852,
      "ĠTV": 7853,
      "ĠPub": 7854,
      "Ġabuse": 7855,
      "Ġwhenever": 7856,
      "falls": 7857,
      "Ġ''": 7858,
      "unde": 7859,
      "Ġunderstood": 7860,
      "âĶĢ": 7861,
      "Ġheute": 7862,
      "ahn": 7863,
      "****************": 7864,
      "Ġment": 7865,
      "ota": 7866,
      "ĠCivil": 7867,
      "Ġpromin": 7868,
      "Ġexamination": 7869,
      "Ġcouple": 7870,
      "Ġinflamm": 7871,
      "Ġstone": 7872,
      "Ġconventional": 7873,
      "Ġchemicals": 7874,
      "ĠRepublic": 7875,
      "ĠCode": 7876,
      "Ġwhereas": 7877,
      "Ġrecognition": 7878,
      "PC": 7879,
      "omy": 7880,
      "dep": 7881,
      "Ġschn": 7882,
      "Ġcomplicated": 7883,
      "ĠWhite": 7884,
      "relation": 7885,
      "cluded": 7886,
      "Ġcollected": 7887,
      "Cur": 7888,
      "Ġclim": 7889,
      "ashion": 7890,
      "Ġmort": 7891,
      "cend": 7892,
      "ĠLiter": 7893,
      "Ġencourages": 7894,
      "ĠRun": 7895,
      "Ġstem": 7896,
      "Ġimper": 7897,
      "Ġkwargs": 7898,
      "ASA": 7899,
      "Ġtit": 7900,
      "Ġcalculation": 7901,
      "Ġemerged": 7902,
      "Ġdialogue": 7903,
      "ĠTer": 7904,
      "Ġlistening": 7905,
      "rowser": 7906,
      "Ġ2001": 7907,
      "licher": 7908,
      "grad": 7909,
      "aben": 7910,
      "ĠUser": 7911,
      "Ġconscious": 7912,
      "orig": 7913,
      "ĠDoes": 7914,
      "Ġstatements": 7915,
      "ĠAI": 7916,
      "ĠOh": 7917,
      "Ġtwice": 7918,
      "Ġtypical": 7919,
      "Ġdoctors": 7920,
      "Ġrobust": 7921,
      "van": 7922,
      "ÃŃ": 7923,
      "ola": 7924,
      "ĠLatin": 7925,
      "edy": 7926,
      "ĠPop": 7927,
      "Ġmodify": 7928,
      "Ġtemplate": 7929,
      "iated": 7930,
      "Ġ'/": 7931,
      "Ġthereby": 7932,
      "Ġconversations": 7933,
      "Ġfif": 7934,
      "Ġrows": 7935,
      "roph": 7936,
      "Ġweap": 7937,
      "Ġconcrete": 7938,
      "Ġembracing": 7939,
      "car": 7940,
      "child": 7941,
      "Ġstorm": 7942,
      "Ġabsorb": 7943,
      "Ġwest": 7944,
      "Bl": 7945,
      "ĠWrite": 7946,
      "ĠSuper": 7947,
      ",\\": 7948,
      "Ġske": 7949,
      "riend": 7950,
      "elled": 7951,
      "Ġpray": 7952,
      "Ġcapture": 7953,
      "Ġbill": 7954,
      "Ġintroduction": 7955,
      "Ġaudience": 7956,
      "Ġmaps": 7957,
      "uts": 7958,
      "gent": 7959,
      "Ġlens": 7960,
      "Ġattribute": 7961,
      "Ġrecognized": 7962,
      "ðŁ": 7963,
      "ĠMuslim": 7964,
      "Ġinitiatives": 7965,
      "Es": 7966,
      "Config": 7967,
      "rd": 7968,
      "ĠLord": 7969,
      "Ġrespectively": 7970,
      "itative": 7971,
      "Ġhealing": 7972,
      "itudes": 7973,
      "ĉĉĉĉ": 7974,
      "Ġaccounts": 7975,
      "Ġenthus": 7976,
      "Ġwear": 7977,
      "Ġmonitor": 7978,
      "Ġpra": 7979,
      "holders": 7980,
      "bles": 7981,
      "ĠDar": 7982,
      "Ġmorning": 7983,
      "Ġmoist": 7984,
      "that": 7985,
      "ĠPsych": 7986,
      "Ġbelief": 7987,
      "avors": 7988,
      "Ġvertical": 7989,
      "Ġimprovement": 7990,
      "Ġgreatest": 7991,
      "Ġartistic": 7992,
      "Ġimpossible": 7993,
      "weg": 7994,
      "itual": 7995,
      "ommen": 7996,
      "kes": 7997,
      "cules": 7998,
      "header": 7999,
      "Ġsurvival": 8000,
      "this": 8001,
      "ague": 8002,
      "Ġsubstance": 8003,
      "Ġdictionary": 8004,
      "Ġlang": 8005,
      "Ġdistingu": 8006,
      "Ġprofound": 8007,
      "west": 8008,
      "Ġuniform": 8009,
      "Ġcompute": 8010,
      "Ġseeing": 8011,
      "Ġstages": 8012,
      "ada": 8013,
      "acific": 8014,
      "Do": 8015,
      "ĠPractice": 8016,
      "power": 8017,
      "rid": 8018,
      "Ġcoordinates": 8019,
      "vor": 8020,
      "ersion": 8021,
      "Ġcomments": 8022,
      "ĠĠĠĠĠĠĠĠĠĠĠĠĠĠĠĠĠĠĠĠĠĠĠĠĠ": 8023,
      "folg": 8024,
      "password": 8025,
      "Äģ": 8026,
      "Ġpossibilities": 8027,
      "Ġdescribes": 8028,
      "Ġbird": 8029,
      "unkt": 8030,
      "ĠFar": 8031,
      "Ġreson": 8032,
      "fulness": 8033,
      "stat": 8034,
      "Ġdiscussing": 8035,
      "Ġvehicle": 8036,
      "ikel": 8037,
      "FF": 8038,
      "Ġsam": 8039,
      "anes": 8040,
      "ĠOnly": 8041,
      "kg": 8042,
      "edge": 8043,
      "ician": 8044,
      "oreign": 8045,
      "Ġrecovery": 8046,
      "dec": 8047,
      "ventions": 8048,
      "Ġelectronic": 8049,
      "hi": 8050,
      "ocument": 8051,
      "Ġintroduce": 8052,
      "uity": 8053,
      "Ġbrings": 8054,
      "ĠQual": 8055,
      "Ġvitamin": 8056,
      "Ġextended": 8057,
      "Ġap": 8058,
      "Ġyellow": 8059,
      "Ġalles": 8060,
      "Equ": 8061,
      "Ġtuple": 8062,
      "Ġscene": 8063,
      "Ġconvey": 8064,
      "],[": 8065,
      "Ġastr": 8066,
      "Ġreform": 8067,
      "ifferent": 8068,
      "agon": 8069,
      "Ġindu": 8070,
      "ĠModern": 8071,
      "Ent": 8072,
      "ounced": 8073,
      "OM": 8074,
      "Ġbonds": 8075,
      "Ġdigits": 8076,
      "service": 8077,
      "Ġconversation": 8078,
      "Ġtall": 8079,
      "agn": 8080,
      "fill": 8081,
      "loss": 8082,
      "Ġ[[": 8083,
      "iology": 8084,
      "ĠBere": 8085,
      "Ġhaz": 8086,
      "Ġplus": 8087,
      "ĠCath": 8088,
      "ounded": 8089,
      "Ġgenes": 8090,
      "Ġcorner": 8091,
      "ĠStrateg": 8092,
      "Ġplate": 8093,
      "miss": 8094,
      "Ġpounds": 8095,
      "Ġhabits": 8096,
      "According": 8097,
      "Ġbesch": 8098,
      "Ġsole": 8099,
      "Ġuncertain": 8100,
      "Over": 8101,
      "Ġexposed": 8102,
      "];": 8103,
      "ĠmÃ¶glich": 8104,
      "Ġderiv": 8105,
      "Ġdealing": 8106,
      "Ġintellectual": 8107,
      "Ġcalculations": 8108,
      "Ġportion": 8109,
      "common": 8110,
      "></": 8111,
      "Ġarts": 8112,
      "stein": 8113,
      "ĠTor": 8114,
      "ĠChallenge": 8115,
      "ĠMaterial": 8116,
      "onomy": 8117,
      "Ġphilosophy": 8118,
      "Ġtraffic": 8119,
      "Ġruns": 8120,
      "itory": 8121,
      "Welcome": 8122,
      "ĠFranc": 8123,
      "Ġunless": 8124,
      "ĠInvest": 8125,
      "Ġproducing": 8126,
      "ĠTem": 8127,
      "Ġnit": 8128,
      "ĠÃĸ": 8129,
      "Ġconcentr": 8130,
      "olden": 8131,
      "otics": 8132,
      "Ġdance": 8133,
      "Ġshad": 8134,
      "Ġregul": 8135,
      "OW": 8136,
      "Ġgall": 8137,
      "ĠBack": 8138,
      "tim": 8139,
      "Ġkill": 8140,
      ":`": 8141,
      "zial": 8142,
      "person": 8143,
      "Ġhel": 8144,
      "ĠStadt": 8145,
      "Ġcalculator": 8146,
      "ĠMedical": 8147,
      "Ġ),": 8148,
      "âĢĭ": 8149,
      "Ġ33": 8150,
      "Ġbiological": 8151,
      "Ġfellow": 8152,
      "Ġedges": 8153,
      "Ġregardless": 8154,
      "Ġquantity": 8155,
      "Ġstack": 8156,
      "emic": 8157,
      "Ġlearners": 8158,
      "mathbf": 8159,
      "Ġmarginal": 8160,
      "Ġcul": 8161,
      "itivity": 8162,
      "ĠFahr": 8163,
      "phone": 8164,
      "Conn": 8165,
      "ĠRussia": 8166,
      "ategory": 8167,
      "Ġexpansion": 8168,
      "Ġinitially": 8169,
      "EE": 8170,
      "Ġmaintenance": 8171,
      "ĠWrit": 8172,
      "UB": 8173,
      "ĠTag": 8174,
      "DP": 8175,
      "ĠBritain": 8176,
      "Ġexplanation": 8177,
      "Ġparticipate": 8178,
      "oded": 8179,
      "Ġmainly": 8180,
      "Ġseemed": 8181,
      "Ġfib": 8182,
      "Ġserving": 8183,
      "remove": 8184,
      "XX": 8185,
      "Ã¶ÃŁ": 8186,
      "minister": 8187,
      "column": 8188,
      "lower": 8189,
      "Table": 8190,
      "ĠVal": 8191,
      "Ġmassive": 8192,
      "ĠUhr": 8193,
      "Ġcomposition": 8194,
      "âĶĢâĶĢ": 8195,
      "Ġpython": 8196,
      "Ġresolution": 8197,
      "mem": 8198,
      "Ġrender": 8199,
      "Ġnutrients": 8200,
      "Ġpoverty": 8201,
      "gew": 8202,
      "Ġappearance": 8203,
      "Ġhundreds": 8204,
      "See": 8205,
      "Ġmanner": 8206,
      "ĠLou": 8207,
      "ye": 8208,
      "Ġpool": 8209,
      "Ġreven": 8210,
      "SI": 8211,
      "Ġsheet": 8212,
      "Ġremarkable": 8213,
      "Ġsan": 8214,
      "Ġcrim": 8215,
      "itutional": 8216,
      "âĤ¬": 8217,
      "Ġenem": 8218,
      "ita": 8219,
      "Ġregression": 8220,
      "Ġproteins": 8221,
      "Ġturning": 8222,
      "ĠWer": 8223,
      "orem": 8224,
      "throp": 8225,
      "Ġoffset": 8226,
      "Ġcloud": 8227,
      "ĠStra": 8228,
      "ĠAtl": 8229,
      "Ġtoxic": 8230,
      "iat": 8231,
      "Ġsuc": 8232,
      "ĠScient": 8233,
      "Ġdataset": 8234,
      "oting": 8235,
      "annels": 8236,
      "Ġaffecting": 8237,
      "Ġradius": 8238,
      "TY": 8239,
      "zone": 8240,
      "Ġattributes": 8241,
      "Ġbek": 8242,
      "Ġcertainly": 8243,
      "Wir": 8244,
      "Posts": 8245,
      "Ġstuff": 8246,
      "Ġconstit": 8247,
      "ighter": 8248,
      "ĠExcel": 8249,
      "Ġvehicles": 8250,
      "Point": 8251,
      "ĠzurÃ¼ck": 8252,
      "Ġbuff": 8253,
      "render": 8254,
      "wing": 8255,
      "Ġadequ": 8256,
      "Ġindeed": 8257,
      "eval": 8258,
      "ĠDat": 8259,
      "ibl": 8260,
      "ĠRobert": 8261,
      "los": 8262,
      "Ġconfiguration": 8263,
      "ĠWoc": 8264,
      "Ġnaturally": 8265,
      "elihood": 8266,
      "ĠQuestions": 8267,
      "Ġresidents": 8268,
      "ï¼": 8269,
      "email": 8270,
      "ficial": 8271,
      "Ġnegot": 8272,
      "ih": 8273,
      "\"],": 8274,
      "Ġgram": 8275,
      "Ġstrings": 8276,
      "ĠStudies": 8277,
      "Ġprotected": 8278,
      "oz": 8279,
      "Ġsubs": 8280,
      "hop": 8281,
      "Ġcourses": 8282,
      "estyle": 8283,
      "Ġdescript": 8284,
      "Ġparse": 8285,
      "connected": 8286,
      "uses": 8287,
      "frame": 8288,
      "Ġstudied": 8289,
      "Ġmeasurements": 8290,
      "Ġcompetition": 8291,
      "Ġletz": 8292,
      "ione": 8293,
      "store": 8294,
      "Ġorganized": 8295,
      "Ġsched": 8296,
      "Ġpreserving": 8297,
      "sequent": 8298,
      "Ġwildlife": 8299,
      "ĠmÃ¶": 8300,
      "Ġtoler": 8301,
      "ĠSou": 8302,
      "Ġnotable": 8303,
      "Ġcash": 8304,
      "Run": 8305,
      "Ġnone": 8306,
      "account": 8307,
      "Ġâī": 8308,
      "cers": 8309,
      "Ġarrived": 8310,
      "Ġaccepted": 8311,
      "umin": 8312,
      "Ġfewer": 8313,
      "Ġinequ": 8314,
      "ĠAR": 8315,
      "Ġpreferences": 8316,
      ")-": 8317,
      "ispiel": 8318,
      "Ġthin": 8319,
      "pool": 8320,
      "Ġod": 8321,
      "ĠRest": 8322,
      "save": 8323,
      "iem": 8324,
      "volume": 8325,
      "onym": 8326,
      "ĠTake": 8327,
      "Ġexplo": 8328,
      "Line": 8329,
      "ĠMill": 8330,
      "acher": 8331,
      "Ġdecor": 8332,
      "Ġemergency": 8333,
      "capes": 8334,
      "Ġcommitment": 8335,
      "DS": 8336,
      "Ġspr": 8337,
      "Ġteams": 8338,
      "Ġends": 8339,
      "Ġpracticing": 8340,
      "Ġfocuses": 8341,
      "pc": 8342,
      "ĠTogether": 8343,
      "Ġbear": 8344,
      "icens": 8345,
      "rices": 8346,
      "immer": 8347,
      "Ġkilled": 8348,
      "ĠMathematics": 8349,
      "Ġextension": 8350,
      "Ġfacilities": 8351,
      "Ġinstalled": 8352,
      "CharField": 8353,
      "Ġparticle": 8354,
      "hesis": 8355,
      "ĠFunction": 8356,
      "telling": 8357,
      "utter": 8358,
      "Cons": 8359,
      "ĠJer": 8360,
      "device": 8361,
      "urd": 8362,
      "Ġrational": 8363,
      "Ġdomestic": 8364,
      "Ġphotos": 8365,
      "Ġdemonstrated": 8366,
      "ĠLAT": 8367,
      "Ġpermission": 8368,
      "Ġvisible": 8369,
      "IST": 8370,
      "afe": 8371,
      "Ġstro": 8372,
      "ĠBal": 8373,
      "Ġreverse": 8374,
      "olds": 8375,
      "ĠPlease": 8376,
      "Ġmeasuring": 8377,
      "Ġgrew": 8378,
      "rary": 8379,
      "ui": 8380,
      "Ã¤hrend": 8381,
      "Ġauthentic": 8382,
      "Ġconflicts": 8383,
      "dimensional": 8384,
      "oral": 8385,
      "ummy": 8386,
      "Ġmaxim": 8387,
      "Ġmobile": 8388,
      "ĠMedicine": 8389,
      "ishes": 8390,
      "ĠAL": 8391,
      "Ġcontributions": 8392,
      "Ġpsychological": 8393,
      "CM": 8394,
      "Ġ\"%": 8395,
      "Ġadj": 8396,
      "Ġtrace": 8397,
      "ĠAccess": 8398,
      "Ġ~": 8399,
      "Ġwellbeing": 8400,
      "ĠStandard": 8401,
      "Ġmarine": 8402,
      "Ġupdated": 8403,
      "Ġwitness": 8404,
      "Ġpairs": 8405,
      "ĠKind": 8406,
      "Ġdisk": 8407,
      "Ġnarrow": 8408,
      "ĠTom": 8409,
      "ĠBro": 8410,
      "Find": 8411,
      "Ġmagical": 8412,
      "Ġadvantages": 8413,
      "ĠColum": 8414,
      "oviet": 8415,
      "Ġfocusing": 8416,
      "ja": 8417,
      "erts": 8418,
      "Ġminimize": 8419,
      "Ġinstruments": 8420,
      "overning": 8421,
      "Ġattached": 8422,
      "Ġenhancing": 8423,
      "ĠAcadem": 8424,
      "ĠHotel": 8425,
      "edu": 8426,
      "Ġallerg": 8427,
      "urz": 8428,
      "Ġartificial": 8429,
      "Ġconsumers": 8430,
      "Ġfacilitate": 8431,
      "Ġamidst": 8432,
      "ĠBeh": 8433,
      "ĠMichael": 8434,
      "Ġwondered": 8435,
      "ferences": 8436,
      "Ġsimultaneously": 8437,
      "Ġhorm": 8438,
      "ĠColl": 8439,
      "Ġhandling": 8440,
      "Ġstable": 8441,
      "ained": 8442,
      "Ġexperiments": 8443,
      "ĠNative": 8444,
      "Ġattacks": 8445,
      "ĠObject": 8446,
      "ĠBundes": 8447,
      "ĠSing": 8448,
      "Ġguarant": 8449,
      "Ġopened": 8450,
      "Ġdivis": 8451,
      "fahren": 8452,
      "Ġdiesen": 8453,
      "ĠRob": 8454,
      "Ġrequiring": 8455,
      "Ġihrer": 8456,
      "sv": 8457,
      "Ġdazu": 8458,
      "words": 8459,
      "iders": 8460,
      "Ġimpress": 8461,
      "ĠUlt": 8462,
      "Ġtheoret": 8463,
      "spe": 8464,
      "Ġgleich": 8465,
      "ĠEngineering": 8466,
      "pute": 8467,
      "Ġpersons": 8468,
      "Ġ75": 8469,
      "Ġcomputing": 8470,
      "Ġindustries": 8471,
      "cience": 8472,
      "azon": 8473,
      "ĠWomen": 8474,
      "Ġnorthern": 8475,
      "ĠSmith": 8476,
      "Ġ400": 8477,
      "During": 8478,
      "ĠLATIN": 8479,
      "Ġpump": 8480,
      "ikip": 8481,
      "Ġimplemented": 8482,
      "ĠMexico": 8483,
      "Ġchannel": 8484,
      "uffer": 8485,
      "Ġevaluation": 8486,
      "Since": 8487,
      "stra": 8488,
      "Ġspin": 8489,
      "Ġtransmission": 8490,
      "Request": 8491,
      "Ġcontainer": 8492,
      "anda": 8493,
      "Ġpassing": 8494,
      "Ġtheories": 8495,
      "Ġvectors": 8496,
      "Ġmeals": 8497,
      "Ġjump": 8498,
      "Ġextent": 8499,
      "ĠBefore": 8500,
      "Ġconnecting": 8501,
      "connection": 8502,
      "Ġmutual": 8503,
      "Ġdream": 8504,
      "ownload": 8505,
      "Ġcour": 8506,
      "Ġasp": 8507,
      "Ġvolunte": 8508,
      "Ġagricultural": 8509,
      "ĠFacebook": 8510,
      "Ã¢": 8511,
      "ĠCy": 8512,
      "Ã¶l": 8513,
      "Ġinfections": 8514,
      "ndrome": 8515,
      "Ġfle": 8516,
      "}}\\": 8517,
      "Ġconcerning": 8518,
      "compass": 8519,
      "Ġreject": 8520,
      "Ġsizes": 8521,
      "Ġgef": 8522,
      "Ġers": 8523,
      "Ġenv": 8524,
      "Ġmyster": 8525,
      "prec": 8526,
      "jekt": 8527,
      "ĠEffect": 8528,
      "ATA": 8529,
      "Ġdecrease": 8530,
      "Ġsector": 8531,
      "Ã¤tz": 8532,
      "Ġcompassion": 8533,
      "?âĢĿ": 8534,
      "imeter": 8535,
      "Ġpreserve": 8536,
      "ato": 8537,
      "Ġconsideration": 8538,
      "Ġopinion": 8539,
      "Ġbond": 8540,
      "Ġperman": 8541,
      "Ġtrip": 8542,
      "Ġtooth": 8543,
      "Ġoral": 8544,
      "Ġjedoch": 8545,
      "ĠTry": 8546,
      "element": 8547,
      "Ġanalyzing": 8548,
      "Ġtrigger": 8549,
      "ĠTre": 8550,
      "Ġthreats": 8551,
      "cls": 8552,
      "Ġappoint": 8553,
      "Ġdivide": 8554,
      "Ġrecorded": 8555,
      "Ġhabitat": 8556,
      "Ġsupplies": 8557,
      "ĠhÃ¶": 8558,
      "Ġholding": 8559,
      "Ġcomparison": 8560,
      "ena": 8561,
      "Ġdoor": 8562,
      "Ġauto": 8563,
      "Ġvibrant": 8564,
      "Ġboost": 8565,
      "Ġprecision": 8566,
      "ĠAff": 8567,
      "Ġgrown": 8568,
      "................": 8569,
      "asive": 8570,
      "ĠJose": 8571,
      "Ġreader": 8572,
      "Ġrom": 8573,
      "Ġdtype": 8574,
      "Ġarms": 8575,
      "Ġbeings": 8576,
      "ĠRom": 8577,
      "Ġil": 8578,
      "Ġshel": 8579,
      "ync": 8580,
      "SP": 8581,
      "ĠGraph": 8582,
      "Ġversions": 8583,
      "meta": 8584,
      "Ġagriculture": 8585,
      "pm": 8586,
      "rogen": 8587,
      "ĠMer": 8588,
      "ĠPeter": 8589,
      "Ġdatetime": 8590,
      "Ġcomfortable": 8591,
      "Ġcamera": 8592,
      "Ġdrinking": 8593,
      "Ġwriter": 8594,
      "Def": 8595,
      "ĠLanguage": 8596,
      "Ġsouthern": 8597,
      "ÑĤ": 8598,
      ")):": 8599,
      "Ġ(-": 8600,
      "Ġcoff": 8601,
      "Ġmarkets": 8602,
      "nung": 8603,
      "Ġsought": 8604,
      "rapper": 8605,
      "Ġpainting": 8606,
      "ĠTexas": 8607,
      "ĠUt": 8608,
      "div": 8609,
      "ĠHIV": 8610,
      "Ġsecondary": 8611,
      "Although": 8612,
      "ĠEncou": 8613,
      "Count": 8614,
      "IES": 8615,
      "Ġsurfaces": 8616,
      "Americ": 8617,
      "public": 8618,
      "Ġsick": 8619,
      "ĠAge": 8620,
      "Ġweights": 8621,
      "ircraft": 8622,
      "Ġhappening": 8623,
      "ĠSupport": 8624,
      "ĠFigure": 8625,
      "ĠRowBox": 8626,
      "ĠJud": 8627,
      "osph": 8628,
      "Ġwet": 8629,
      "ordinary": 8630,
      "ulary": 8631,
      "Ġrub": 8632,
      "Ġtheme": 8633,
      "Ġhumanity": 8634,
      "bur": 8635,
      "ÂłÂłÂłÂłÂłÂłÂł": 8636,
      "Ġsollte": 8637,
      "ĠPhysics": 8638,
      "oten": 8639,
      "ĠChange": 8640,
      "Ġwouldn": 8641,
      "headers": 8642,
      "Ġeinmal": 8643,
      "ĠProcess": 8644,
      "Ġring": 8645,
      "ĠThanks": 8646,
      "ĠCompany": 8647,
      "ĠBible": 8648,
      "include": 8649,
      "ala": 8650,
      "Ġpreparation": 8651,
      "Ġnan": 8652,
      "Ġcrops": 8653,
      "icular": 8654,
      "Ġequals": 8655,
      "Ġmuseum": 8656,
      "Ġidentifying": 8657,
      "Ġnorms": 8658,
      "arse": 8659,
      "istan": 8660,
      "wart": 8661,
      "Ġfoss": 8662,
      "ching": 8663,
      "Ġdiagram": 8664,
      "Ġthousand": 8665,
      "ĠTreat": 8666,
      "Ġstake": 8667,
      "Ġtested": 8668,
      "Ġdemands": 8669,
      "send": 8670,
      "Ġintrig": 8671,
      "eq": 8672,
      "struct": 8673,
      "ailability": 8674,
      "Ġpolice": 8675,
      "Ġadvancements": 8676,
      "ATH": 8677,
      "ĠAuch": 8678,
      "Ġdevelopments": 8679,
      "Ġmanufactur": 8680,
      "Ġimplied": 8681,
      "Ġprefix": 8682,
      "Create": 8683,
      "bet": 8684,
      "hm": 8685,
      "ĠĠĠĠĠĠĠĠĠĠĠĠĠĠĠĠĠĠĠĠĠĠ": 8686,
      "ican": 8687,
      "Ġminds": 8688,
      "Ġreactions": 8689,
      "chts": 8690,
      "ĠGlobal": 8691,
      "Ġperforming": 8692,
      "GL": 8693,
      "Ġheaders": 8694,
      "txt": 8695,
      "Ġaest": 8696,
      "Ġcharacterized": 8697,
      "Ġbattery": 8698,
      "Ġ34": 8699,
      "Ġinstant": 8700,
      "Ġneighborhood": 8701,
      "Question": 8702,
      "ocabulary": 8703,
      "Ein": 8704,
      "ĠPacific": 8705,
      "Ġ42": 8706,
      "Ġaccum": 8707,
      "ĠIndust": 8708,
      "]))": 8709,
      "upp": 8710,
      "Ġ'.": 8711,
      "ILITY": 8712,
      "rh": 8713,
      "ernel": 8714,
      "ĠAlgebra": 8715,
      "Ġox": 8716,
      "ĠEth": 8717,
      "Ġbytes": 8718,
      "Ġhorse": 8719,
      "Ġagreement": 8720,
      "Ġstated": 8721,
      "Ext": 8722,
      "ĠAdv": 8723,
      "ikipedia": 8724,
      "Ġsod": 8725,
      "Ġerr": 8726,
      "Ġsen": 8727,
      "Ġreprodu": 8728,
      "ĠTri": 8729,
      "ĠEN": 8730,
      "Ġkit": 8731,
      "Ġdut": 8732,
      "blank": 8733,
      "oric": 8734,
      "ĠPan": 8735,
      "ĠProper": 8736,
      "mu": 8737,
      "ĠConsequently": 8738,
      "phi": 8739,
      "aufen": 8740,
      "Ġdiagnosis": 8741,
      "Ġgravity": 8742,
      "ĠWill": 8743,
      "Ġ48": 8744,
      "ĠTeam": 8745,
      "ĠBusiness": 8746,
      "arios": 8747,
      "Ġflour": 8748,
      "ĠPot": 8749,
      "acles": 8750,
      "Ġpresident": 8751,
      "Ġconven": 8752,
      "ĠAbout": 8753,
      "Ġfly": 8754,
      "ĠChem": 8755,
      "creen": 8756,
      "Joined": 8757,
      "ws": 8758,
      "Ġbrown": 8759,
      "Ġnecessarily": 8760,
      "ĠCanadian": 8761,
      "Ġeast": 8762,
      "Expl": 8763,
      "Ġseinen": 8764,
      "Ġinputs": 8765,
      "Cal": 8766,
      "zero": 8767,
      "Ġfra": 8768,
      "abil": 8769,
      "ĠWhich": 8770,
      "ĠNutz": 8771,
      "beits": 8772,
      "MM": 8773,
      "pie": 8774,
      "Ġinhab": 8775,
      "Ġprem": 8776,
      "Ġincorporate": 8777,
      "ĠException": 8778,
      "ĠAppro": 8779,
      "CP": 8780,
      "Py": 8781,
      "VI": 8782,
      "Ġwish": 8783,
      "ĠWord": 8784,
      "Ġinspiration": 8785,
      "Â·": 8786,
      "ba": 8787,
      "Ġbits": 8788,
      "ĠNature": 8789,
      "Ã¤l": 8790,
      "ĠLearn": 8791,
      "ĠEnvironmental": 8792,
      "Ġ150": 8793,
      "Ġclients": 8794,
      "Ġlists": 8795,
      "ĠSom": 8796,
      "ĠAnaly": 8797,
      "Ġpil": 8798,
      "Ġinterpretation": 8799,
      "Ġhen": 8800,
      "Input": 8801,
      "ĠUnivers": 8802,
      "Ġlargely": 8803,
      "help": 8804,
      "Ġfeels": 8805,
      "Ġ64": 8806,
      "Ġheavily": 8807,
      "Ġtrend": 8808,
      "kin": 8809,
      "prot": 8810,
      "Ġattend": 8811,
      "Ġmedications": 8812,
      "Ġinjuries": 8813,
      "Max": 8814,
      "results": 8815,
      "Ġexplored": 8816,
      "Ġsustainability": 8817,
      "Ġpurchase": 8818,
      "Dis": 8819,
      "Ġtor": 8820,
      "ona": 8821,
      "Ġprincip": 8822,
      "orter": 8823,
      "ĠThose": 8824,
      "Ġstatic": 8825,
      "Ġhouses": 8826,
      "hell": 8827,
      "ĠPRO": 8828,
      "Ġhospital": 8829,
      "Art": 8830,
      "Ġimplementing": 8831,
      "OK": 8832,
      "Ã³": 8833,
      "install": 8834,
      "ĠHistorical": 8835,
      "Ġexpensive": 8836,
      "Ġaccessible": 8837,
      "ĠSoviet": 8838,
      "Ġentertain": 8839,
      "neg": 8840,
      "Ġspark": 8841,
      "Ġappeared": 8842,
      "va": 8843,
      "ĠWhether": 8844,
      "Ġages": 8845,
      "Ġnormally": 8846,
      "Ġembed": 8847,
      "Fact": 8848,
      "Ġsweet": 8849,
      "ĠContin": 8850,
      "Ġachieved": 8851,
      "Ġprofessor": 8852,
      "Ġdimension": 8853,
      "Ġlit": 8854,
      "Ġrural": 8855,
      "Ġautomatically": 8856,
      "Ġefficiently": 8857,
      "lights": 8858,
      "Ġcopyright": 8859,
      "Ġcrisis": 8860,
      "resource": 8861,
      "Ġinspire": 8862,
      "Ġindependence": 8863,
      "Ã¼nst": 8864,
      "isters": 8865,
      "anta": 8866,
      "Ġagencies": 8867,
      "Ġcoal": 8868,
      "ĠPri": 8869,
      "exist": 8870,
      "ĠSelect": 8871,
      "Ġkommt": 8872,
      "illa": 8873,
      "cluding": 8874,
      "Ġsubsequent": 8875,
      "Ġcontributing": 8876,
      "ĠSection": 8877,
      "ĠComputer": 8878,
      "Ġsessions": 8879,
      "Mit": 8880,
      "ells": 8881,
      "exit": 8882,
      "-\\": 8883,
      "ĠFÃ¼r": 8884,
      "Ġqualities": 8885,
      "ĠCourt": 8886,
      "ĠBed": 8887,
      "ĠFollow": 8888,
      "Ġunus": 8889,
      "Most": 8890,
      "Ġcoun": 8891,
      "Ġforth": 8892,
      "ĠKn": 8893,
      "Ġsteht": 8894,
      "ua": 8895,
      "Ġeducators": 8896,
      "Ġunsere": 8897,
      "Rel": 8898,
      "Ġartist": 8899,
      ")[": 8900,
      "eed": 8901,
      "Ġflo": 8902,
      "Ġengaged": 8903,
      "2011": 8904,
      "Ġcust": 8905,
      "agues": 8906,
      "Ġbroken": 8907,
      "control": 8908,
      "Ġimmediate": 8909,
      "Ã¤ll": 8910,
      "Ġtheorem": 8911,
      "Ġbread": 8912,
      "ĠDE": 8913,
      "mented": 8914,
      "ĠSecurity": 8915,
      "Ġdependent": 8916,
      "Ġmood": 8917,
      "ĠNASA": 8918,
      "Ġsei": 8919,
      "Ġdifferently": 8920,
      "Ġmolecules": 8921,
      "Ġintegers": 8922,
      "stellung": 8923,
      "found": 8924,
      "lage": 8925,
      "Ġweil": 8926,
      "ello": 8927,
      "fÃ¼g": 8928,
      "ĠPlay": 8929,
      "Ġ1990": 8930,
      "ĠIII": 8931,
      "Ġaccident": 8932,
      "Ġsatell": 8933,
      "emeins": 8934,
      "Ġhorizontal": 8935,
      "ĠRE": 8936,
      "Ġprison": 8937,
      "epend": 8938,
      "Size": 8939,
      "Ġmagic": 8940,
      "Ġcoordinate": 8941,
      "Ġodd": 8942,
      "exists": 8943,
      "norm": 8944,
      "icken": 8945,
      "Ġapplicable": 8946,
      "inite": 8947,
      "Ġgoverning": 8948,
      "encode": 8949,
      "Ref": 8950,
      "Mat": 8951,
      "ĠTH": 8952,
      "ĠJews": 8953,
      "Ġgun": 8954,
      "asser": 8955,
      "ĠOffice": 8956,
      "lessly": 8957,
      "ulas": 8958,
      "Build": 8959,
      "Ġmapping": 8960,
      "Ġbarriers": 8961,
      "UD": 8962,
      "gments": 8963,
      "ÏĢ": 8964,
      "Ġproviders": 8965,
      "nten": 8966,
      "such": 8967,
      "ipher": 8968,
      "Ġrail": 8969,
      "%.": 8970,
      "ĠLim": 8971,
      "ĠOpt": 8972,
      "aked": 8973,
      "Ġjoy": 8974,
      "ascular": 8975,
      "rovers": 8976,
      "Ġcompat": 8977,
      "Ġexplains": 8978,
      "Module": 8979,
      "klich": 8980,
      "Ġshaped": 8981,
      "Ġhypothesis": 8982,
      "TS": 8983,
      "Ġ37": 8984,
      "ervice": 8985,
      "Ġmanufacturing": 8986,
      "Number": 8987,
      "gex": 8988,
      "Ġargue": 8989,
      "tree": 8990,
      "Ġtick": 8991,
      "Ġcart": 8992,
      "ĠYet": 8993,
      "Ġparticipation": 8994,
      "Ġhousing": 8995,
      "ĠBase": 8996,
      "Ġfeat": 8997,
      "Ġproduces": 8998,
[...]
